{"version":"1.0","truncation":null,"padding":null,"added_tokens":[{"id":0,"special":true,"content":"[UNK]","single_word":false,"lstrip":false,"rstrip":false,"normalized":false},{"id":1,"special":true,"content":"[CLS]","single_word":false,"lstrip":false,"rstrip":false,"normalized":false},{"id":2,"special":true,"content":"[SEP]","single_word":false,"lstrip":false,"rstrip":false,"normalized":false},{"id":3,"special":true,"content":"[PAD]","single_word":false,"lstrip":false,"rstrip":false,"normalized":false},{"id":4,"special":true,"content":"[MASK]","single_word":false,"lstrip":false,"rstrip":false,"normalized":false}],"normalizer":{"type":"Sequence","normalizers":[{"type":"NFD"},{"type":"Lowercase"},{"type":"StripAccents"}]},"pre_tokenizer":{"type":"Whitespace"},"post_processor":{"type":"TemplateProcessing","single":[{"SpecialToken":{"id":"[CLS]","type_id":0}},{"Sequence":{"id":"A","type_id":0}},{"SpecialToken":{"id":"[SEP]","type_id":0}}],"pair":[{"SpecialToken":{"id":"[CLS]","type_id":0}},{"Sequence":{"id":"A","type_id":0}},{"SpecialToken":{"id":"[SEP]","type_id":0}},{"Sequence":{"id":"B","type_id":1}},{"SpecialToken":{"id":"[SEP]","type_id":1}}],"special_tokens":{"[CLS]":{"id":"[CLS]","ids":[1],"tokens":["[CLS]"]},"[SEP]":{"id":"[SEP]","ids":[2],"tokens":["[SEP]"]}}},"decoder":{"type":"WordPiece","prefix":"##","cleanup":true},"model":{"type":"WordPiece","unk_token":"[UNK]","continuing_subword_prefix":"##","max_input_chars_per_word":100,"vocab":{"[UNK]":0,"[CLS]":1,"[SEP]":2,"[PAD]":3,"[MASK]":4,"\u0007":5,"\u001a":6,"!":7,"\"":8,"#":9,"$":10,"%":11,"&":12,"'":13,"(":14,")":15,"*":16,"+":17,",":18,"-":19,".":20,"/":21,"0":22,"1":23,"2":24,"3":25,"4":26,"5":27,"6":28,"7":29,"8":30,"9":31,":":32,";":33,"<":34,"=":35,">":36,"?":37,"@":38,"[":39,"\\":40,"]":41,"^":42,"_":43,"`":44,"a":45,"b":46,"c":47,"d":48,"e":49,"f":50,"g":51,"h":52,"i":53,"j":54,"k":55,"l":56,"m":57,"n":58,"o":59,"p":60,"q":61,"r":62,"s":63,"t":64,"u":65,"v":66,"w":67,"x":68,"y":69,"z":70,"{":71,"|":72,"}":73,"~":74,"":75,"":76,"":77,"":78,"":79,"":80,"":81,"":82,"":83,"":84,"":85,"":86,"":87,"":88,"":89,"":90,"":91,"":92,"":93,"":94,"":95,"":96,"":97,"":98,"":99,"":100,"":101,"":102,"":103,"":104,"":105,"¡":106,"¢":107,"£":108,"¤":109,"¥":110,"¦":111,"§":112,"¨":113,"©":114,"ª":115,"«":116,"¬":117,"­":118,"®":119,"¯":120,"°":121,"±":122,"²":123,"³":124,"´":125,"µ":126,"¶":127,"·":128,"¸":129,"¹":130,"º":131,"»":132,"¼":133,"½":134,"¾":135,"¿":136,"×":137,"ð":138,"##s":139,"##o":140,"##b":141,"##e":142,"##l":143,"##i":144,"##u":145,"##x":146,"##r":147,"##c":148,"##h":149,"##y":150,"##g":151,"##a":152,"##w":153,"##n":154,"##_":155,"##d":156,"##t":157,"##m":158,"##q":159,"##p":160,"##f":161,"##v":162,"##k":163,"##z":164,"##ª":165,"##'":166,"##\"":167,"##j":168,"##3":169,"##0":170,"##9":171,"##.":172,"##2":173,"##6":174,"##-":175,"##8":176,"##|":177,"##4":178,"##+":179,"##1":180,"##;":181,"##!":182,"##":183,"##7":184,"##º":185,"##":186,"##5":187,"##:":188,"##,":189,"##=":190,"##[":191,"##":192,"##×":193,"##":194,"##(":195,"##]":196,"##*":197,"##?":198,"##)":199,"##/":200,"##$":201,"##¿":202,"##µ":203,"##":204,"##¤":205,"##":206,"##":207,"##`":208,"##\\":209,"##":210,"##":211,"##&":212,"##>":213,"###":214,"##~":215,"##":216,"##·":217,"##":218,"##¨":219,"##":220,"##":221,"##°":222,"##±":223,"##":224,"##^":225,"##¡":226,"##<":227,"##":228,"##}":229,"##":230,"##¶":231,"##":232,"##¸":233,"##¦":234,"##¥":235,"##":236,"##":237,"##²":238,"##{":239,"##ð":240,"##¢":241,"##":242,"##§":243,"##­":244,"##":245,"##@":246,"##©":247,"##»":248,"##´":249,"##¼":250,"##³":251,"##":252,"##":253,"##¹":254,"##":255,"##":256,"##£":257,"##":258,"##":259,"##½":260,"##%":261,"##«":262,"##®":263,"##¬":264,"th":265,"the":266,"##er":267,"##nd":268,"##in":269,"##ed":270,"##ou":271,"##at":272,"##en":273,"of":274,"and":275,"##or":276,"##on":277,"##es":278,"to":279,"##is":280,"##ar":281,"##ing":282,"##an":283,"##it":284,"##as":285,"##ll":286,"in":287,"##re":288,"wh":289,"he":290,"##om":291,"be":292,"ha":293,"##le":294,"##ot":295,"##ic":296,"##ow":297,"that":298,"it":299,"##ut":300,"##ld":301,"##ly":302,"##ve":303,"you":304,"##se":305,"was":306,"sh":307,"##id":308,"##gh":309,"on":310,"##et":311,"##ent":312,"##st":313,"##im":314,"##ce":315,"##ith":316,"##ion":317,"as":318,"for":319,"##ir":320,"his":321,"##al":322,"##ay":323,"##ur":324,"with":325,"st":326,"##ch":327,"re":328,"##ad":329,"##ver":330,"##ter":331,"her":332,"an":333,"is":334,"not":335,"had":336,"##ght":337,"at":338,"##am":339,"##ould":340,"##oo":341,"##her":342,"but":343,"##ct":344,"##ess":345,"fr":346,"se":347,"we":348,"sa":349,"pr":350,"##ill":351,"##ain":352,"him":353,"su":354,"she":355,"me":356,"so":357,"##ere":358,"##ight":359,"##all":360,"have":361,"##ke":362,"de":363,"##il":364,"ch":365,"##est":366,"##ich":367,"my":368,"by":369,"all":370,"they":371,".\"":372,"##pe":373,"##ome":374,"##ck":375,"li":376,"which":377,"ne":378,"##ore":379,"this":380,"con":381,"or":382,"##ge":383,"##ul":384,"do":385,"up":386,"##th":387,"--":388,"##ard":389,"##ra":390,"##ri":391,"from":392,",\"":393,"no":394,"said":395,"there":396,"ex":397,"man":398,"##ie":399,"##os":400,"were":401,"##ant":402,"##us":403,"##ble":404,"al":405,"who":406,"##pp":407,"##ust":408,"##ous":409,"##and":410,"##ation":411,"one":412,"##ers":413,"fe":414,"##em":415,"##ast":416,"##our":417,"##lf":418,"would":419,"kn":420,"them":421,"##ind":422,"are":423,"go":424,"if":425,"##art":426,"en":427,"##un":428,"##ist":429,"##ate":430,"le":431,"##ong":432,"com":433,"##ol":434,"##ood":435,"##ap":436,"their":437,"when":438,"##ame":439,"##out":440,"wor":441,"br":442,"been":443,"ab":444,"what":445,"##um":446,"un":447,"will":448,"out":449,"##ound":450,"##if":451,"##ough":452,"##ak":453,"##one":454,"##op":455,"int":456,"##ish":457,"tr":458,"##ook":459,"##ig":460,"ar":461,"##itt":462,"##la":463,"##own":464,"fa":465,"am":466,"qu":467,"mr":468,"##ort":469,"##ery":470,"##ven":471,"af":472,"##ost":473,"##self":474,"your":475,"ro":476,"##ive":477,"sp":478,"can":479,"##el":480,"##reat":481,"ag":482,"some":483,"more":484,"##ity":485,"any":486,"then":487,"##ence":488,"could":489,"##ry":490,"##fe":491,"##ake":492,"##ther":493,"##ose":494,"##ure":495,"##nder":496,"now":497,"?\"":498,"tim":499,"##pt":500,"##qu":501,"very":502,"cl":503,"##ag":504,"##au":505,"##ance":506,"into":507,"tw":508,"##ies":509,"than":510,"other":511,"bo":512,"like":513,"ever":514,"know":515,"##ink":516,"did":517,"##able":518,"us":519,"##oun":520,"##ass":521,"##ine":522,"##ved":523,"ad":524,"look":525,"##--":526,"##cc":527,"##wn":528,"##ite":529,"has":530,"im":531,"##way":532,"##ittle":533,"##urn":534,"little":535,"##ell":536,"how":537,"see":538,"gr":539,"##ack":540,"co":541,"##ep":542,"##ice":543,"lo":544,"##ci":545,"##ide":546,"pro":547,"##ade":548,"about":549,"##fore":550,"##ought":551,"should":552,"time":553,"##ach":554,"##hing":555,"upon":556,"po":557,"say":558,"##tain":559,"our":560,"dis":561,"per":562,"again":563,"##ally":564,"##ment":565,"##other":566,"str":567,"great":568,"after":569,"##ud":570,"##ab":571,"over":572,"too":573,"day":574,"well":575,"##ings":576,"mar":577,"hand":578,"##ather":579,"only":580,"##ick":581,"##oss":582,"down":583,"##age":584,"##ord":585,"good":586,"mu":587,"car":588,"##iv":589,"off":590,"##ile":591,"##ree":592,"thr":593,"##ire":594,"##pl":595,"##ber":596,"before":597,"fl":598,"think":599,"pl":600,"pe":601,"sc":602,"cr":603,"bl":604,"much":605,"fir":606,"two":607,"##ars":608,"may":609,"part":610,"such":611,"##ked":612,"pre":613,"must":614,"made":615,"old":616,"##ang":617,"ind":618,"##ious":619,"##ward":620,"##pr":621,"rem":622,"come":623,"##ue":624,"its":625,"!\"":626,"##ady":627,"never":628,"##ions":629,"here":630,"these":631,"bet":632,"##ful":633,"##ness":634,"where":635,"##ull":636,"##ied":637,"##ount":638,"sm":639,"##ft":640,"fo":641,"under":642,"long":643,"way":644,"##od":645,"##ated":646,"let":647,"##per":648,"own":649,"spe":650,"##ac":651,"##ath":652,"##ving":653,"men":654,"even":655,"##ild":656,"##orn":657,"gl":658,"ho":659,"##ty":660,"might":661,"##led":662,"##ary":663,"every":664,"res":665,"##ect":666,"first":667,"##ise":668,"bec":669,"back":670,"came":671,"##ves":672,"des":673,"##ered":674,"##ff":675,"himself":676,"dr":677,"ey":678,"##ans":679,"pla":680,"ye":681,"thought":682,"seem":683,"ob":684,"don":685,"##ip":686,"##int":687,"##ced":688,"##iss":689,"just":690,"##co":691,"cont":692,"comp":693,"##ces":694,"##we":695,"##oth":696,"##llow":697,"get":698,"bel":699,"those":700,"##igh":701,"cons":702,"##ried":703,"##ily":704,"pass":705,"ke":706,"##ouse":707,"wr":708,"##ave":709,"shall":710,"jo":711,"make":712,"pres":713,"most":714,"life":715,"through":716,"##are":717,"still":718,"##atter":719,"last":720,"away":721,"acc":722,"comm":723,"beg":724,"la":725,"em":726,"##iff":727,"head":728,"som":729,"##ng":730,"att":731,"wat":732,"being":733,"##man":734,"went":735,"inter":736,"new":737,"turn":738,"sl":739,"young":740,"##ign":741,"call":742,"ap":743,"##ark":744,"##ory":745,"though":746,"##ons":747,"house":748,"yet":749,"##ether":750,".'":751,"##pect":752,"without":753,"##ens":754,"eng":755,"tell":756,"word":757,"take":758,"while":759,"char":760,"somet":761,"##iend":762,"##ction":763,"ret":764,"op":765,"mo":766,"##ause":767,"nothing":768,"te":769,"friend":770,"ser":771,"cour":772,"many":773,"##ase":774,"##ened":775,"##les":776,"##ared":777,"work":778,"##ew":779,"##air":780,"far":781,"cap":782,"##ition":783,"mrs":784,"nat":785,"eyes":786,"ear":787,"count":788,"##iz":789,"wom":790,"found":791,"right":792,"##ian":793,"want":794,"##ently":795,"app":796,"sir":797,"once":798,"##ted":799,"##ro":800,"night":801,"##less":802,"end":803,"##cl":804,"##ors":805,"gen":806,"##sw":807,"##red":808,"##alk":809,"##ub":810,"place":811,"##aking":812,"put":813,"supp":814,"##ible":815,"ll":816,"##ople":817,",'":818,"mind":819,"gra":820,"face":821,"people":822,"##te":823,"dist":824,"##land":825,"father":826,"another":827,"heart":828,"##ult":829,"arm":830,"nor":831,"same":832,"mom":833,"answ":834,"##gg":835,"ac":836,"##fect":837,"moment":838,"set":839,"imp":840,"inst":841,"things":842,"##av":843,"ple":844,"room":845,"got":846,"##thing":847,"why":848,"##ertain":849,"##ting":850,"gu":851,"god":852,"##sel":853,"##ject":854,"##ations":855,"lady":856,"##ince":857,"left":858,"saw":859,"##ange":860,"pers":861,"##ict":862,"##ank":863,"ma":864,"find":865,"war":866,"sub":867,"##ia":868,"miss":869,"diff":870,"three":871,"##ways":872,"looked":873,"thing":874,"world":875,"feel":876,"ve":877,"sw":878,"##ace":879,"##ished":880,"appe":881,"##augh":882,"##ical":883,"##ner":884,"light":885,"near":886,"##ling":887,"form":888,"love":889,"child":890,"wa":891,"##ix":892,"ass":893,"belie":894,"give":895,"##ever":896,"seemed":897,"sat":898,"always":899,"gener":900,"sur":901,"##ock":902,"going":903,"better":904,"##ph":905,"##ey":906,"##ower":907,"done":908,",--":909,"##den":910,"##iver":911,"happ":912,"##oub":913,"something":914,"high":915,"against":916,"certain":917,"col":918,"##ither":919,"tra":920,"took":921,"lord":922,"##uth":923,"hard":924,"asked":925,"poss":926,"quite":927,"bre":928,"##aps":929,"because":930,"vo":931,"conf":932,"prop":933,"##cy":934,"yes":935,"boy":936,"inf":937,"reg":938,"##ents":939,"kind":940,"ph":941,"##ple":942,"return":943,"gre":944,"ord":945,"rel":946,"side":947,"follow":948,"":949,"##irl":950,"##orm":951,"ev":952,"half":953,"inde":954,"el":955,"heard":956,"few":957,"##ret":958,"knew":959,"##ched":960,"hands":961,"told":962,"##ool":963,"del":964,"mon":965,"##cept":966,"cle":967,"enough":968,"##most":969,"##orr":970,"wind":971,"read":972,"min":973,"##og":974,"##lt":975,"##ters":976,"##so":977,"sil":978,"##iness":979,"##ined":980,"course":981,"##ual":982,"##ib":983,"##ised":984,"##oke":985,"matter":986,"par":987,"among":988,"##ween":989,"rest":990,"girl":991,"##pped":992,"hum":993,"between":994,"es":995,"round":996,"adv":997,"##press":998,"mother":999,"soon":1000,"##cess":1001,"years":1002,"ste":1003,"##ning":1004,"king":1005,"##uck":1006,"occ":1007,"seen":1008,"##ove":1009,"woman":1010,"beh":1011,"##act":1012,"home":1013,"pur":1014,"door":1015,"act":1016,"dre":1017,"poor":1018,"hour":1019,"##end":1020,"cur":1021,"##ress":1022,"keep":1023,"##ps":1024,"##aken":1025,"id":1026,"##ush":1027,"ref":1028,"hel":1029,"##wards":1030,"##ott":1031,"##ial":1032,"each":1033,"rep":1034,"ed":1035,"sure":1036,"##ier":1037,"##ale":1038,"##ense":1039,"##haps":1040,"tre":1041,"##not":1042,"also":1043,"##ular":1044,"perhaps":1045,"oh":1046,"##und":1047,"##aut":1048,"ter":1049,"##ail":1050,"dra":1051,"name":1052,"both":1053,"mean":1054,"##xt":1055,"whom":1056,"unt":1057,"having":1058,"add":1059,"##ond":1060,"dear":1061,"whole":1062,"##ully":1063,"##ows":1064,"##ited":1065,"bar":1066,"har":1067,"point":1068,"##ash":1069,"gent":1070,"almost":1071,"pleas":1072,"however":1073,"##selves":1074,"##sh":1075,"stand":1076,"country":1077,"##ru":1078,"ins":1079,"##osed":1080,"does":1081,"indeed":1082,"##iet":1083,"##ained":1084,"bla":1085,"##ute":1086,"best":1087,"doub":1088,"##ern":1089,"##eng":1090,"wo":1091,"##its":1092,"sk":1093,"water":1094,"land":1095,"morn":1096,"##ying":1097,"fam":1098,"##ason":1099,"present":1100,"myself":1101,"turned":1102,"called":1103,"##ged":1104,"##ures":1105,"less":1106,"small":1107,"##ks":1108,"sent":1109,"art":1110,"sou":1111,"##owed":1112,"gentle":1113,"till":1114,"rather":1115,"##ired":1116,"quest":1117,"##ton":1118,"hear":1119,"stre":1120,"##lish":1121,"morning":1122,"lar":1123,"exc":1124,"days":1125,"dark":1126,"underst":1127,"##aster":1128,"anything":1129,"felt":1130,"inc":1131,"white":1132,"##..":1133,"open":1134,"fact":1135,"care":1136,"##ife":1137,"since":1138,"vis":1139,"bu":1140,"##ene":1141,"talk":1142,"che":1143,"hon":1144,"law":1145,"next":1146,"##amp":1147,"began":1148,"##ating":1149,"adm":1150,"consid":1151,"sim":1152,"stood":1153,"##oud":1154,"##ins":1155,"hope":1156,"##tered":1157,"words":1158,"believe":1159,"doubt":1160,"gi":1161,"looking":1162,"##ung":1163,"gave":1164,"##ief":1165,"voice":1166,"met":1167,"##rib":1168,"brought":1169,"##ention":1170,"##ately":1171,"##oy":1172,"##ably":1173,"##vel":1174,"person":1175,"hor":1176,"four":1177,"aw":1178,"beaut":1179,"sn":1180,"unc":1181,"black":1182,"18":1183,"laugh":1184,"##lic":1185,"captain":1186,"interest":1187,"##oney":1188,"herself":1189,"##ured":1190,"ext":1191,"sud":1192,"spir":1193,"answered":1194,"red":1195,"##ok":1196,"compan":1197,"until":1198,"gone":1199,"fall":1200,"sudden":1201,"forg":1202,"sch":1203,"cond":1204,"speak":1205,"##dy":1206,"##als":1207,"need":1208,"taken":1209,"bus":1210,"cannot":1211,"mer":1212,"##ates":1213,"contin":1214,"full":1215,"##ember":1216,"true":1217,"chr":1218,"wonder":1219,"sun":1220,"run":1221,"use":1222,"suff":1223,"##ering":1224,"tog":1225,"ill":1226,"##fully":1227,"together":1228,"power":1229,"help":1230,"##med":1231,"book":1232,"##ont":1233,"differ":1234,"ra":1235,"lay":1236,"inv":1237,"fire":1238,"serv":1239,"##tle":1240,"?'":1241,"wish":1242,"##ody":1243,"money":1244,"##ants":1245,"##ches":1246,"hold":1247,"sea":1248,"wife":1249,"##ren":1250,"strong":1251,"english":1252,"sec":1253,"##ude":1254,"##ued":1255,"least":1256,"thus":1257,"themselves":1258,"others":1259,"##ird":1260,"swe":1261,"along":1262,"bur":1263,"sle":1264,"play":1265,"general":1266,"##ments":1267,"##fort":1268,"##up":1269,"fin":1270,"##ets":1271,"whose":1272,"pol":1273,"death":1274,"dire":1275,"##iled":1276,"##ten":1277,"##hn":1278,"sy":1279,"air":1280,"det":1281,"##ances":1282,"rec":1283,"##ii":1284,"whether":1285,"pa":1286,"foot":1287,"remember":1288,"##ield":1289,"sever":1290,"##iting":1291,"##ead":1292,"sort":1293,"pat":1294,"christ":1295,"fellow":1296,"##body":1297,"ide":1298,"deep":1299,"##used":1300,"case":1301,"##men":1302,"given":1303,"ent":1304,"cried":1305,"ir":1306,"passed":1307,"nature":1308,"ask":1309,"##ities":1310,"short":1311,"fur":1312,"dec":1313,"behind":1314,"##ength":1315,"leave":1316,"opp":1317,"##ived":1318,"mil":1319,"##uring":1320,"brother":1321,"##ceed":1322,"##akes":1323,"question":1324,"cir":1325,"prom":1326,"##ison":1327,"obs":1328,"##aring":1329,"##ater":1330,"really":1331,"bes":1332,"says":1333,"##osition":1334,"understand":1335,"bed":1336,"aff":1337,"##cious":1338,"fair":1339,"john":1340,"real":1341,"express":1342,"sing":1343,"##ister":1344,"##ned":1345,"reason":1346,"start":1347,"tem":1348,"##cover":1349,"dead":1350,"mad":1351,"town":1352,"##unt":1353,"reach":1354,"large":1355,"feet":1356,"##anger":1357,"close":1358,"##az":1359,"rece":1360,"##ually":1361,"circ":1362,"alone":1363,"##plied":1364,"##essed":1365,"##iew":1366,"##cond":1367,"##ert":1368,"mis":1369,"##aint":1370,"chap":1371,"thou":1372,"son":1373,"##vers":1374,"##ne":1375,"letter":1376,"##ages":1377,"ground":1378,"abs":1379,"lad":1380,"##enty":1381,"##ane":1382,"hund":1383,"##oc":1384,"prof":1385,"hundred":1386,"##laim":1387,"pub":1388,"fort":1389,"above":1390,"expect":1391,"##ught":1392,"sound":1393,"known":1394,"##ready":1395,"charac":1396,"second":1397,"sign":1398,"often":1399,"wood":1400,"##ides":1401,"ge":1402,"already":1403,"manner":1404,"coming":1405,"eas":1406,"##esh":1407,"##ley":1408,"disc":1409,"show":1410,"suppose":1411,"state":1412,"num":1413,"pap":1414,"ten":1415,"dri":1416,"within":1417,"friends":1418,"tri":1419,"fear":1420,"dev":1421,"replied":1422,"ship":1423,"##ided":1424,"ru":1425,"hur":1426,"towards":1427,"expl":1428,"ele":1429,"truth":1430,"##old":1431,"##ific":1432,"business":1433,"wal":1434,"dep":1435,"##mm":1436,"meet":1437,"wall":1438,"six":1439,"##mb":1440,"five":1441,"##ching":1442,"##ffect":1443,"spirit":1444,"jud":1445,"##gn":1446,"wild":1447,"master":1448,"subject":1449,"##ape":1450,"mod":1451,"walk":1452,"##ek":1453,"##ives":1454,"times":1455,"du":1456,"else":1457,"clear":1458,"##ench":1459,"##oken":1460,"bra":1461,"lear":1462,"obser":1463,"##illed":1464,"!'":1465,"fell":1466,"low":1467,"pret":1468,"necess":1469,"itself":1470,"order":1471,"##cted":1472,"bad":1473,"##li":1474,"##br":1475,"cast":1476,"lea":1477,"year":1478,"mid":1479,"children":1480,"horse":1481,"##imes":1482,"##eth":1483,"##ross":1484,"list":1485,"##ines":1486,"bring":1487,"pain":1488,"prin":1489,"##ames":1490,"returned":1491,"##ient":1492,"##ger":1493,"lost":1494,"##rew":1495,"natur":1496,"means":1497,"effect":1498,"consider":1499,"therefore":1500,"const":1501,"dem":1502,"strange":1503,"fan":1504,"##son":1505,"mere":1506,"##iful":1507,"quiet":1508,"either":1509,"##ution":1510,"##vern":1511,"rose":1512,"boat":1513,"rich":1514,"chur":1515,"live":1516,"var":1517,"glad":1518,"respect":1519,"squ":1520,"won":1521,"port":1522,"##lly":1523,"##ility":1524,"used":1525,"step":1526,"##here":1527,"cat":1528,"##ative":1529,"##ident":1530,"occas":1531,"making":1532,"##arr":1533,"past":1534,"women":1535,"pet":1536,"human":1537,"except":1538,"ca":1539,"##ience":1540,"eye":1541,"##ote":1542,"england":1543,"kept":1544,"arr":1545,"sight":1546,"table":1547,"##be":1548,"answer":1549,"dut":1550,"family":1551,"character":1552,"soul":1553,"cal":1554,"across":1555,"didn":1556,"object":1557,"cut":1558,"held":1559,"##ards":1560,"er":1561,"##iously":1562,"est":1563,"exp":1564,"sense":1565,"several":1566,"body":1567,"##opped":1568,"spr":1569,"diffic":1570,"during":1571,"gold":1572,"mist":1573,"possible":1574,"mag":1575,"offic":1576,"appear":1577,"chapter":1578,"##itted":1579,"ah":1580,"##empt":1581,"##use":1582,"suddenly":1583,"sus":1584,"ut":1585,"##airs":1586,"##ism":1587,"hea":1588,"quick":1589,"cra":1590,"doct":1591,"mur":1592,"##ouble":1593,"##wh":1594,"sit":1595,"blood":1596,"common":1597,"##ug":1598,"evening":1599,"def":1600,"story":1601,"deal":1602,"earth":1603,"road":1604,"thous":1605,"":1606,"bit":1607,"thy":1608,"thousand":1609,"lead":1610,"##cing":1611,"tou":1612,"river":1613,"prob":1614,"perfect":1615,"decl":1616,"hill":1617,"stra":1618,"##ham":1619,"##cul":1620,"hus":1621,"sometimes":1622,"##owing":1623,"##eric":1624,"big":1625,"prod":1626,"##ony":1627,"cross":1628,"ought":1629,"surpr":1630,"soci":1631,"slow":1632,"gentleman":1633,".--":1634,"##idence":1635,"##by":1636,"##oon":1637,"certainly":1638,"church":1639,"conc":1640,"##ney":1641,"##iter":1642,"free":1643,"fig":1644,"arri":1645,"become":1646,"rock":1647,"":1648,"daugh":1649,"partic":1650,"draw":1651,"##ny":1652,"able":1653,"##aught":1654,"##oura":1655,"##itting":1656,"prev":1657,"seems":1658,"view":1659,"##ts":1660,"##ising":1661,"ready":1662,"cent":1663,"quar":1664,"prov":1665,"break":1666,"party":1667,"account":1668,"coll":1669,"begin":1670,"##me":1671,"--\"":1672,"##ety":1673,"##ians":1674,"##ized":1675,"##ury":1676,"##rie":1677,"proper":1678,"##nded":1679,"##ah":1680,"##band":1681,"##orrow":1682,"##een":1683,".]":1684,"arms":1685,"everything":1686,"sleep":1687,"din":1688,"pretty":1689,"auth":1690,"lu":1691,"public":1692,"govern":1693,"became":1694,"succ":1695,"cold":1696,"corn":1697,"command":1698,"##ndon":1699,"imag":1700,"ran":1701,"around":1702,"feeling":1703,"##ots":1704,"##uct":1705,"ann":1706,"scar":1707,"worth":1708,"chief":1709,"##ys":1710,"fav":1711,"followed":1712,"enter":1713,"pay":1714,"beautiful":1715,"spoke":1716,"##gr":1717,"##ms":1718,"##ship":1719,"val":1720,"##ingly":1721,"cor":1722,"vi":1723,"idea":1724,"##antly":1725,"maj":1726,"esc":1727,"self":1728,"secret":1729,"twenty":1730,"##anged":1731,"husband":1732,"),":1733,"fight":1734,"occasion":1735,"trans":1736,"phil":1737,"rid":1738,"heaven":1739,"forward":1740,"french":1741,"stri":1742,"##ones":1743,"mus":1744,"##iar":1745,"##ented":1746,"leg":1747,"##orge":1748,"##utes":1749,"##isf":1750,"month":1751,"##ination":1752,"none":1753,"heav":1754,"plain":1755,"##outh":1756,"##ession":1757,"pen":1758,"vill":1759,"hot":1760,"equ":1761,"americ":1762,"hast":1763,"stay":1764,"purp":1765,"appeared":1766,"discover":1767,"different":1768,"pal":1769,"london":1770,"##umb":1771,"stud":1772,"##une":1773,"grand":1774,"##ountain":1775,"appro":1776,"##uss":1777,"conv":1778,"exam":1779,"sold":1780,"tom":1781,"taking":1782,"da":1783,"city":1784,"faith":1785,"disp":1786,"##ased":1787,"comple":1788,"line":1789,"bey":1790,"div":1791,"hist":1792,"##dle":1793,"continued":1794,"doing":1795,"fine":1796,"dream":1797,"##der":1798,"##ement":1799,"court":1800,"##lled":1801,"repr":1802,"win":1803,"green":1804,"beyond":1805,"ce":1806,"##ices":1807,"mem":1808,"##inct":1809,"added":1810,"exper":1811,"school":1812,"##erm":1813,"##alth":1814,"reco":1815,"summ":1816,"##ested":1817,"prep":1818,"##bed":1819,"send":1820,"boys":1821,"front":1822,"daughter":1823,"danger":1824,"fre":1825,"move":1826,"hair":1827,"prot":1828,"fore":1829,"pie":1830,"pray":1831,"bene":1832,"carry":1833,"remain":1834,"##ime":1835,"acqu":1836,"happy":1837,"creat":1838,"bear":1839,"##tern":1840,"mor":1841,"##iment":1842,"mine":1843,"sin":1844,"vol":1845,"street":1846,"chance":1847,"##side":1848,"satisf":1849,"bill":1850,"##well":1851,"led":1852,"yourself":1853,"##ior":1854,"##itude":1855,"requ":1856,"circum":1857,"rev":1858,"late":1859,"bright":1860,"further":1861,"company":1862,"##app":1863,"import":1864,"author":1865,"trust":1866,"regard":1867,"##riage":1868,"sal":1869,"##uced":1870,"bat":1871,"visit":1872,"opin":1873,"soft":1874,"pict":1875,"##ality":1876,"##ump":1877,"carried":1878,"##anced":1879,"particular":1880,"##ope":1881,"comes":1882,"mat":1883,"hours":1884,"##cri":1885,"breat":1886,"##ize":1887,"natural":1888,"comfort":1889,"try":1890,"##oof":1891,"thee":1892,"hat":1893,"dog":1894,"sail":1895,"sad":1896,"news":1897,"anx":1898,"prince":1899,"dest":1900,"fif":1901,"george":1902,"gard":1903,"wanted":1904,"ang":1905,"number":1906,"##iving":1907,"change":1908,"##raid":1909,"wrong":1910,"uncle":1911,"anim":1912,"cry":1913,"priv":1914,"saying":1915,"neither":1916,"window":1917,"exist":1918,"##where":1919,"...":1920,"enem":1921,"super":1922,"nearly":1923,"direct":1924,"##bert":1925,"##gy":1926,"##day":1927,"flo":1928,"alth":1929,"hall":1930,"whis":1931,"rom":1932,"##ler":1933,"although":1934,"later":1935,"##ences":1936,"shad":1937,"delight":1938,").":1939,"":1940,"cause":1941,"ver":1942,"afraid":1943,"##ushed":1944,"mountain":1945,"received":1946,"reached":1947,"##laimed":1948,"eff":1949,"longer":1950,"hardly":1951,"pract":1952,"success":1953,"trouble":1954,"burn":1955,"position":1956,"doctor":1957,"post":1958,"accord":1959,"sister":1960,"fool":1961,"circumst":1962,"attempt":1963,"tried":1964,"##ously":1965,"##medi":1966,"early":1967,"##pend":1968,"silence":1969,"##ipp":1970,"##ledge":1971,"remark":1972,"jack":1973,"cre":1974,"##inary":1975,"sweet":1976,"sugg":1977,"##aged":1978,"island":1979,"lab":1980,"inqu":1981,"minutes":1982,"lie":1983,"opened":1984,"mouth":1985,"cover":1986,"##aw":1987,"##gar":1988,"grace":1989,"##owers":1990,"walked":1991,"alt":1992,"##uff":1993,"main":1994,"slight":1995,"living":1996,"##ster":1997,"camp":1998,"whate":1999,"eight":2000,"##ugg":2001,"age":2002,"17":2003,"princi":2004,"fast":2005,"##bit":2006,"##ues":2007,"blue":2008,"meant":2009,"sol":2010,"force":2011,"bound":2012,"av":2013,"##itten":2014,"sla":2015,"contr":2016,"##otion":2017,"tal":2018,"whatever":2019,"med":2020,"necessary":2021,"cloth":2022,"peace":2023,"##irt":2024,"mark":2025,"miles":2026,"##ament":2027,"##ob":2028,"##ening":2029,"##ified":2030,"##usion":2031,"##ric":2032,"length":2033,"thinking":2034,"entered":2035,"smile":2036,"desp":2037,"##iam":2038,"gall":2039,"##ilt":2040,"ago":2041,"accom":2042,"##ls":2043,"bird":2044,"west":2045,"probably":2046,"dick":2047,"chair":2048,"scarce":2049,"purpose":2050,"forth":2051,"inn":2052,"immedi":2053,"shar":2054,"treat":2055,"slowly":2056,"##ended":2057,"standing":2058,"##oured":2059,"breath":2060,"north":2061,"##itch":2062,"save":2063,"trees":2064,"##oint":2065,"den":2066,"repe":2067,"getting":2068,"##let":2069,"##olog":2070,"laid":2071,"broken":2072,"##cies":2073,"distance":2074,"youth":2075,".,":2076,"pleasure":2077,"duty":2078,"##00":2079,"crow":2080,"##ald":2081,"jour":2082,"mary":2083,"field":2084,"##eless":2085,"emb":2086,"##lu":2087,"##els":2088,"##iest":2089,"##val":2090,"ger":2091,"prison":2092,"##onel":2093,"thank":2094,"##ift":2095,"class":2096,"gun":2097,"exact":2098,"entire":2099,"sens":2100,"##ics":2101,"bank":2102,"heavy":2103,"strength":2104,"struck":2105,"proceed":2106,"##de":2107,"week":2108,"happened":2109,"watch":2110,"die":2111,"##sequ":2112,"##cient":2113,"conce":2114,"top":2115,"bott":2116,"lim":2117,"##idge":2118,"##ustom":2119,"admir":2120,"coun":2121,"##ists":2122,"neigh":2123,"arch":2124,"##rible":2125,"##dd":2126,"##amed":2127,"convers":2128,"##ply":2129,"##ored":2130,"bell":2131,"dinner":2132,"dress":2133,"lived":2134,"sav":2135,"board":2136,"##ius":2137,"##icked":2138,"brown":2139,"##iling":2140,"##hood":2141,"##ager":2142,"build":2143,"##ounded":2144,"enc":2145,"##ically":2146,"knows":2147,"tree":2148,"##aded":2149,"hung":2150,"##itions":2151,"mill":2152,"neighb":2153,"hop":2154,"rob":2155,"south":2156,"##tained":2157,"service":2158,"hors":2159,"resol":2160,"sam":2161,"lips":2162,"safe":2163,"wait":2164,"sho":2165,"##ee":2166,"easy":2167,"##ging":2168,"ast":2169,"exclaimed":2170,"##eness":2171,"##ats":2172,"born":2173,"opinion":2174,"##oose":2175,"##arch":2176,"lang":2177,"instead":2178,"##rupt":2179,"sitting":2180,"approach":2181,"##cially":2182,"queen":2183,"und":2184,"ant":2185,"##asp":2186,"frank":2187,"##crib":2188,"mess":2189,"intell":2190,"remained":2191,"cab":2192,"stopped":2193,"incl":2194,"##ries":2195,"glass":2196,"appar":2197,"##ume":2198,"##que":2199,"imposs":2200,"written":2201,"je":2202,"bro":2203,"stone":2204,"narr":2205,"##ges":2206,"knowledge":2207,"rap":2208,"seeing":2209,"horses":2210,"colonel":2211,"##ixed":2212,"##amb":2213,"dom":2214,"grave":2215,"weak":2216,"##yal":2217,"straight":2218,"##ming":2219,"cas":2220,"accept":2221,"besides":2222,"##ina":2223,"##he":2224,"paper":2225,"mention":2226,"thir":2227,"drew":2228,"note":2229,"hen":2230,"##ma":2231,"fit":2232,"makes":2233,"relig":2234,"died":2235,"inform":2236,"brit":2237,"imm":2238,"##ounds":2239,"gaz":2240,"joy":2241,"history":2242,"##form":2243,"##ann":2244,"difficult":2245,"figure":2246,"##king":2247,"garden":2248,"##what":2249,"mass":2250,"aunt":2251,"fle":2252,"##wise":2253,"##ively":2254,"shout":2255,"##isted":2256,"following":2257,"van":2258,"polit":2259,"crowd":2260,"path":2261,"##ency":2262,"fresh":2263,"laughed":2264,"tone":2265,"presently":2266,"army":2267,"caught":2268,"drink":2269,"##fer":2270,"##iers":2271,"enj":2272,"concl":2273,"##mer":2274,"below":2275,"write":2276,"please":2277,"##ork":2278,"##mp":2279,"sor":2280,"pop":2281,"government":2282,"impress":2283,"poet":2284,"beauty":2285,"##oom":2286,"determ":2287,"silent":2288,"espe":2289,"##ils":2290,"##uce":2291,"pull":2292,"##igin":2293,"whisper":2294,"somewhat":2295,"impossible":2296,"##ze":2297,"married":2298,"extra":2299,"fash":2300,"office":2301,"vict":2302,"ty":2303,"eat":2304,"##uc":2305,"thoughts":2306,"toward":2307,"hun":2308,"guard":2309,"##ours":2310,"##ron":2311,"peter":2312,"##erv":2313,"usual":2314,".)":2315,"latter":2316,"letters":2317,"fut":2318,"address":2319,"circumstances":2320,"suffic":2321,"##ustr":2322,"compl":2323,"forget":2324,"fing":2325,"loved":2326,"##par":2327,"showed":2328,"deg":2329,"ladies":2330,"appearance":2331,"ii":2332,"wit":2333,"influ":2334,"##ining":2335,"march":2336,"##ogether":2337,"gather":2338,"presence":2339,"broke":2340,"altogether":2341,"dan":2342,"obl":2343,"afterwards":2344,"##uit":2345,"origin":2346,"occup":2347,"moved":2348,"beat":2349,"##ask":2350,"##ech":2351,"waiting":2352,"thick":2353,"desire":2354,"spot":2355,"fat":2356,"une":2357,"demand":2358,"attention":2359,"##oop":2360,"isn":2361,"single":2362,"##unk":2363,"wouldn":2364,"attack":2365,"expected":2366,"neg":2367,"goes":2368,"##urs":2369,"##reme":2370,"##dom":2371,"intr":2372,"stop":2373,"former":2374,"warm":2375,"noble":2376,"scene":2377,"##ection":2378,"##eks":2379,"train":2380,"unless":2381,"##ories":2382,"months":2383,"result":2384,"viol":2385,"grow":2386,"third":2387,"purs":2388,"fancy":2389,"fal":2390,"##nding":2391,"belong":2392,"##read":2393,"fashion":2394,"##ises":2395,"placed":2396,"pleasant":2397,"plan":2398,"grew":2399,"earn":2400,"##fection":2401,"started":2402,"##cience":2403,"impr":2404,"langu":2405,"##----":2406,"cloud":2407,"mal":2408,"wide":2409,"expression":2410,"society":2411,"nation":2412,"complete":2413,"yell":2414,"clock":2415,";--":2416,"recogn":2417,"ven":2418,"couldn":2419,"speaking":2420,"merely":2421,"depart":2422,"marry":2423,"places":2424,"honest":2425,"hu":2426,"enemy":2427,"shot":2428,"broad":2429,"especially":2430,"##cial":2431,"pock":2432,"conn":2433,"##uel":2434,"civ":2435,"aftern":2436,"##aped":2437,"##olute":2438,"books":2439,"learn":2440,"greater":2441,"##ourage":2442,"##ature":2443,"likely":2444,"battle":2445,"pros":2446,"##zz":2447,"##orth":2448,"bab":2449,"##cell":2450,"talking":2451,"effort":2452,"##ected":2453,"turning":2454,"##pping":2455,"conversation":2456,"consequ":2457,"shore":2458,"passion":2459,"beside":2460,"##mn":2461,"utter":2462,"##pic":2463,"##ivid":2464,"arrived":2465,"ball":2466,"outside":2467,"commun":2468,"leaving":2469,"##io":2470,"##lling":2471,"morrow":2472,"surprise":2473,"village":2474,"mel":2475,"sole":2476,"afternoon":2477,"snow":2478,"immediately":2479,"repres":2480,"cou":2481,"##rief":2482,"##ibly":2483,"journey":2484,"##acy":2485,"##iced":2486,"sand":2487,"strugg":2488,"girls":2489,"##cked":2490,"worse":2491,"##light":2492,"rate":2493,"filled":2494,"corner":2495,"fly":2496,"lift":2497,"minute":2498,"beginning":2499,"maid":2500,"trave":2501,"fun":2502,"##under":2503,"giving":2504,"\"'":2505,"sick":2506,"raised":2507,"hes":2508,"observed":2509,"spring":2510,"##anch":2511,"simple":2512,"gentlemen":2513,"##mon":2514,"box":2515,"honour":2516,"##iety":2517,"##ouses":2518,"##itation":2519,"famil":2520,"absolute":2521,"christian":2522,"##bs":2523,"future":2524,"dread":2525,"##orted":2526,"sorry":2527,"ign":2528,"shook":2529,"liter":2530,"##str":2531,"##oe":2532,"##ital":2533,"enjoy":2534,"major":2535,"##erable":2536,"##mpath":2537,"exh":2538,"occur":2539,"##teen":2540,"shut":2541,"dim":2542,"fish":2543,"bow":2544,"##cil":2545,"duke":2546,"kiss":2547,"piece":2548,"stream":2549,"beneath":2550,"hy":2551,"sky":2552,"middle":2553,"##osing":2554,"hid":2555,"tall":2556,"condition":2557,"##res":2558,"teach":2559,"scarcely":2560,"mut":2561,"forest":2562,"declared":2563,"escape":2564,"##yn":2565,"mir":2566,"meas":2567,"exactly":2568,"sword":2569,"american":2570,"##zen":2571,"sympath":2572,"##oved":2573,"lean":2574,"generally":2575,"companion":2576,"empl":2577,"entirely":2578,"cler":2579,"star":2580,"refle":2581,"##ec":2582,"trying":2583,"conscious":2584,"moon":2585,"ves":2586,"sett":2587,"neck":2588,"perfectly":2589,"lives":2590,"corr":2591,"##come":2592,"incre":2593,"##uly":2594,"##gress":2595,"arg":2596,"private":2597,"dry":2598,"castle":2599,"seven":2600,"tears":2601,"##uous":2602,"evil":2603,"speech":2604,"liber":2605,"eager":2606,"looks":2607,"hol":2608,"instant":2609,"marriage":2610,"advant":2611,"hero":2612,"loud":2613,"xx":2614,"persons":2615,"kill":2616,"direction":2617,"##gan":2618,"quickly":2619,"tender":2620,"rain":2621,"peri":2622,"##fast":2623,"terrible":2624,"##ford":2625,"civil":2626,"##otten":2627,"##ror":2628,"concern":2629,"ur":2630,"harry":2631,"wise":2632,"james":2633,"disg":2634,"mort":2635,"learned":2636,"suc":2637,"cost":2638,"oblig":2639,"employ":2640,"fright":2641,"pecul":2642,"succeed":2643,"##arked":2644,"floor":2645,"##atic":2646,"gate":2647,"##ision":2648,"##cript":2649,"spoken":2650,"capt":2651,"paid":2652,"judge":2653,"tur":2654,"##orough":2655,"pun":2656,"##ples":2657,"pale":2658,"ben":2659,"mart":2660,"france":2661,"ta":2662,"##ulty":2663,"charge":2664,"##to":2665,"temper":2666,"ay":2667,"##itary":2668,"bitter":2669,"":2670,"touch":2671,"peculiar":2672,"reply":2673,"faint":2674,"##rel":2675,"wand":2676,"running":2677,"ow":2678,"excell":2679,"cous":2680,"shr":2681,"various":2682,"easily":2683,"##jo":2684,"earnest":2685,"eur":2686,"tast":2687,"jim":2688,"##ract":2689,"##ission":2690,"##ora":2691,"sake":2692,"##uded":2693,"delic":2694,"houses":2695,"##ivers":2696,"period":2697,"et":2698,"##uted":2699,"ris":2700,"silver":2701,"simply":2702,"ere":2703,"nobody":2704,"##my":2705,"understood":2706,"perm":2707,"vent":2708,"##anc":2709,"difficulty":2710,"##ument":2711,"wrote":2712,"fallen":2713,"situ":2714,"changed":2715,"opport":2716,"yours":2717,"surely":2718,"##oses":2719,"affect":2720,"rapid":2721,"drawing":2722,"matters":2723,"##ring":2724,"supposed":2725,"pi":2726,"....":2727,"##esty":2728,"hang":2729,"mount":2730,"apart":2731,"vessel":2732,"summer":2733,"clim":2734,"pleased":2735,"killed":2736,"smiled":2737,"##itable":2738,"shadow":2739,"##pan":2740,"firm":2741,"##ashed":2742,"cheer":2743,"vall":2744,"##set":2745,"##eds":2746,"europe":2747,"deser":2748,"##elve":2749,"fer":2750,"lower":2751,"wished":2752,"wid":2753,"##cks":2754,"##oned":2755,"lines":2756,"action":2757,"species":2758,"repeated":2759,"describ":2760,"proud":2761,"food":2762,"earl":2763,"gar":2764,"sharp":2765,"dam":2766,"advent":2767,"##gged":2768,"##aled":2769,"opportun":2770,"knight":2771,"fol":2772,"favour":2773,"vain":2774,"wonderful":2775,"picture":2776,"influence":2777,"curious":2778,"experience":2779,"##umed":2780,"important":2781,"gh":2782,"habit":2783,"lying":2784,"anxious":2785,"walls":2786,"inj":2787,"##ners":2788,"stranger":2789,"##kes":2790,"press":2791,"furn":2792,"health":2793,"##ains":2794,"iron":2795,"##action":2796,"whe":2797,"dar":2798,"royal":2799,"illustr":2800,"wel":2801,"##ipped":2802,"attend":2803,"feelings":2804,"ears":2805,"east":2806,"_th":2807,"fla":2808,"resp":2809,"tow":2810,"ine":2811,"notice":2812,"lou":2813,"extreme":2814,"german":2815,"covered":2816,"according":2817,"16":2818,"stat":2819,"valley":2820,"sigh":2821,"believed":2822,"hath":2823,"burst":2824,"calm":2825,"leaves":2826,"##iction":2827,"ancient":2828,"fifty":2829,"##ett":2830,"##osp":2831,"allowed":2832,"listen":2833,"host":2834,"##lend":2835,"allow":2836,"rough":2837,"darkness":2838,"fixed":2839,"10":2840,"##how":2841,"pocket":2842,"steps":2843,"grass":2844,"##wood":2845,"justice":2846,"promise":2847,"##retched":2848,"considered":2849,"trad":2850,"remarked":2851,"distinct":2852,"grey":2853,"ain":2854,"william":2855,"span":2856,"virt":2857,"rail":2858,"defe":2859,"closed":2860,"flowers":2861,"##ole":2862,"thirty":2863,"winter":2864,"##appe":2865,"ourselves":2866,"clothes":2867,"seat":2868,"priest":2869,"fortune":2870,"##ille":2871,"becom":2872,"separ":2873,"tong":2874,"storm":2875,"crown":2876,"dare":2877,"phys":2878,"serious":2879,"threw":2880,"quietly":2881,"harm":2882,"ring":2883,"##lished":2884,"##na":2885,"writing":2886,"##ayed":2887,"eld":2888,"conduct":2889,"revol":2890,"dism":2891,"##nday":2892,"----":2893,"passage":2894,"ber":2895,"##raph":2896,"henry":2897,"wis":2898,"difference":2899,"parts":2900,"wear":2901,"##oph":2902,"##idently":2903,"creature":2904,"stick":2905,"alar":2906,"passing":2907,"suggest":2908,"false":2909,"assist":2910,"determined":2911,"station":2912,"watched":2913,"reck":2914,"troub":2915,"offer":2916,"drawn":2917,"song":2918,"glance":2919,"##inite":2920,"claim":2921,"##reh":2922,"crit":2923,"introd":2924,"bull":2925,"15":2926,"music":2927,"estab":2928,"quarter":2929,"murm":2930,"modern":2931,"jew":2932,"##af":2933,"language":2934,"breakfast":2935,"luck":2936,"custom":2937,"york":2938,"heads":2939,"pick":2940,"race":2941,"game":2942,"british":2943,"meth":2944,"agre":2945,"##ding":2946,"formed":2947,"states":2948,"refer":2949,"discovered":2950,"bold":2951,"dropped":2952,"offered":2953,"guess":2954,"decided":2955,"orders":2956,"##bo":2957,"shoulder":2958,"engaged":2959,"aston":2960,"recover":2961,"swift":2962,"doll":2963,"##ites":2964,"stir":2965,"cand":2966,"fem":2967,"12":2968,"##oted":2969,"indian":2970,"bottom":2971,"knowing":2972,"stock":2973,"forgotten":2974,"property":2975,"desce":2976,"devil":2977,"##aff":2978,"!--":2979,"render":2980,"##iently":2981,"cousin":2982,"ways":2983,"talked":2984,"empt":2985,"affection":2986,"##enced":2987,"##ara":2988,"##ator":2989,"works":2990,"agree":2991,"weather":2992,"knock":2993,"perce":2994,"rever":2995,"memory":2996,"bal":2997,"bag":2998,"prec":2999,"##over":3000,"##ishop":3001,"magn":3002,"fond":3003,"reading":3004,"narrow":3005,"spite":3006,"degree":3007,"deb":3008,"beast":3009,"horr":3010,"tit":3011,"imper":3012,"officer":3013,"meeting":3014,"##osite":3015,"splend":3016,"##go":3017,":--":3018,"deck":3019,"rising":3020,"personal":3021,"individ":3022,"disapp":3023,"##ores":3024,"##ague":3025,"loss":3026,"vast":3027,"fate":3028,"##itated":3029,"blind":3030,"ess":3031,"paris":3032,"prepared":3033,"roll":3034,"blow":3035,"perform":3036,"remembered":3037,"soldiers":3038,"social":3039,"dece":3040,"thin":3041,"wil":3042,"##like":3043,"gree":3044,"lot":3045,"ende":3046,"courage":3047,"surprised":3048,"fail":3049,"spread":3050,"cabin":3051,"philos":3052,"##velop":3053,"spent":3054,"ignor":3055,"##itor":3056,"birds":3057,"nay":3058,"cott":3059,"unf":3060,"opportunity":3061,"band":3062,"advantage":3063,"rise":3064,"cla":3065,"##lin":3066,"pounds":3067,"uns":3068,"pride":3069,"discuss":3070,"finished":3071,"opposite":3072,"kne":3073,"##roy":3074,"##head":3075,"educ":3076,"accompan":3077,"##anted":3078,"iv":3079,"officers":3080,"##ibility":3081,"charles":3082,"bir":3083,"holy":3084,"gri":3085,"pack":3086,"smoke":3087,"rank":3088,"angry":3089,"##ests":3090,"wine":3091,"##attered":3092,"frequ":3093,"servant":3094,"ange":3095,"liked":3096,"##ishment":3097,"brave":3098,"##ingu":3099,"ash":3100,"suspic":3101,"evidence":3102,"square":3103,"interrupt":3104,"pity":3105,"##pected":3106,"oper":3107,"depend":3108,"intellig":3109,"##stem":3110,"grou":3111,"thrown":3112,"bread":3113,"apparently":3114,"grad":3115,"##amber":3116,"dav":3117,"individual":3118,"meaning":3119,"dust":3120,"moral":3121,"cruel":3122,"bush":3123,"intended":3124,"jer":3125,"##ays":3126,"fault":3127,"everybody":3128,"affairs":3129,"evidently":3130,"keeping":3131,"shame":3132,"_c":3133,"haven":3134,"faces":3135,"cho":3136,"trib":3137,"produced":3138,"majesty":3139,"nice":3140,"##etic":3141,"aug":3142,"cow":3143,"shop":3144,"innoc":3145,"holding":3146,"otherwise":3147,"walking":3148,"waited":3149,"##bur":3150,"tis":3151,"mot":3152,"greatly":3153,"greatest":3154,"##iant":3155,"##umph":3156,"breast":3157,"##ium":3158,"hills":3159,"lod":3160,"colour":3161,"system":3162,"##gment":3163,"questions":3164,"aware":3165,"settled":3166,"##oops":3167,"grat":3168,"##bing":3169,"shoulders":3170,"cred":3171,"drop":3172,"coast":3173,"coat":3174,"pure":3175,"pot":3176,"smo":3177,"yellow":3178,"scot":3179,"hotel":3180,"ordinary":3181,"deliver":3182,"profess":3183,"solemn":3184,"cases":3185,"possession":3186,"laws":3187,"##ral":3188,"height":3189,"share":3190,"##iii":3191,"unh":3192,"twelve":3193,"situation":3194,"##itive":3195,"cop":3196,"##vation":3197,"##yr":3198,"bas":3199,"rub":3200,"##ilar":3201,"cook":3202,"surr":3203,"wasn":3204,"der":3205,"pointed":3206,"_m":3207,"twice":3208,"higher":3209,"##pir":3210,"paul":3211,"##ival":3212,"##fortun":3213,"_s":3214,"endeav":3215,"sty":3216,"due":3217,"prete":3218,"##osity":3219,"tail":3220,"study":3221,"report":3222,"confidence":3223,"whispered":3224,"san":3225,"triumph":3226,"native":3227,"##ointed":3228,"11":3229,"ones":3230,"spirits":3231,"witness":3232,"suggested":3233,"obliged":3234,"mountains":3235,"##face":3236,"tea":3237,"crossed":3238,"religion":3239,"dign":3240,"##ounced":3241,"familiar":3242,"affair":3243,"##umn":3244,"inh":3245,"instance":3246,"##ify":3247,"explain":3248,"telling":3249,"richard":3250,"##vey":3251,"regular":3252,"dozen":3253,"bless":3254,"tired":3255,"forms":3256,"murder":3257,"lose":3258,"weeks":3259,"##antic":3260,"interv":3261,"inquir":3262,"finally":3263,"##por":3264,"stern":3265,"fier":3266,"arrange":3267,"weight":3268,"##aked":3269,"clean":3270,"aside":3271,"terms":3272,"hurt":3273,"bare":3274,"existence":3275,"suffer":3276,"##enth":3277,"names":3278,"constit":3279,"receive":3280,"ren":3281,"forced":3282,"forty":3283,"carriage":3284,"touched":3285,"roof":3286,"unw":3287,"##ulous":3288,"di":3289,"artic":3290,"fortun":3291,"disappe":3292,"mac":3293,"willing":3294,"proved":3295,"distingu":3296,"pit":3297,"lat":3298,"reader":3299,"promised":3300,"considerable":3301,"comb":3302,"working":3303,"shown":3304,"motion":3305,"19":3306,"page":3307,"gray":3308,"value":3309,"amount":3310,"##com":3311,"legs":3312,"rode":3313,"distur":3314,"finding":3315,"authority":3316,"built":3317,"taste":3318,"prefer":3319,"##race":3320,"space":3321,"##imate":3322,"alive":3323,"watching":3324,"speed":3325,"threat":3326,"distant":3327,"explained":3328,"mater":3329,"##ached":3330,"palace":3331,"edge":3332,"unk":3333,"papers":3334,"fingers":3335,"bent":3336,"bri":3337,"footnot":3338,"facts":3339,"##icated":3340,"caused":3341,"##ishing":3342,"test":3343,"honor":3344,"ba":3345,"worst":3346,"design":3347,"happiness":3348,"##erc":3349,"sacri":3350,"aud":3351,"##rop":3352,"represent":3353,"reb":3354,"trade":3355,"pra":3356,"##unch":3357,"##illing":3358,"putting":3359,"14":3360,"rocks":3361,"prove":3362,"excellent":3363,"saint":3364,"sufficient":3365,"##uses":3366,"##ike":3367,"##arily":3368,"mentioned":3369,"##eer":3370,"grown":3371,"thorough":3372,"develop":3373,"pair":3374,"##stone":3375,"##arther":3376,"example":3377,"##aly":3378,"acquaint":3379,"nine":3380,"ride":3381,"ble":3382,"##bury":3383,"lies":3384,"absolutely":3385,"farther":3386,"bod":3387,"streets":3388,"ga":3389,"lake":3390,"##ushing":3391,"woods":3392,"##aces":3393,"fellows":3394,"bay":3395,"bishop":3396,"##hip":3397,"hither":3398,"bid":3399,"pictures":3400,"foreign":3401,"hurried":3402,"##ulation":3403,"rejo":3404,"saved":3405,"animals":3406,"tongue":3407,"hide":3408,"##esp":3409,"##road":3410,"mam":3411,"troops":3412,"animal":3413,"process":3414,"empty":3415,"13":3416,"##tering":3417,"myst":3418,"doesn":3419,"##uls":3420,"interesting":3421,"exec":3422,"spect":3423,"gloom":3424,"instinct":3425,"##reg":3426,"##sy":3427,"##gin":3428,"##mond":3429,"building":3430,"?--":3431,"thom":3432,"row":3433,"agreed":3434,"##nds":3435,"golden":3436,"##ires":3437,"pard":3438,"handsome":3439,"##iles":3440,"##hern":3441,"farm":3442,"##cent":3443,"conqu":3444,"america":3445,"takes":3446,"madame":3447,"##now":3448,"imagine":3449,"##iny":3450,"windows":3451,"##ception":3452,"prevent":3453,"##chief":3454,"catch":3455,"sides":3456,"satisfied":3457,"',":3458,"mas":3459,"wicked":3460,"##oat":3461,"ep":3462,"savage":3463,"possess":3464,"anne":3465,"search":3466,"anybody":3467,"cath":3468,"por":3469,"drive":3470,"settle":3471,"##oid":3472,"political":3473,"hom":3474,"##ams":3475,"opening":3476,"progress":3477,"truly":3478,"dull":3479,"naturally":3480,"equal":3481,"wed":3482,"scr":3483,"##bers":3484,"##asm":3485,"##gen":3486,"gives":3487,"##rey":3488,"treas":3489,"happen":3490,"##ctions":3491,"destroy":3492,"##ena":3493,"yards":3494,"sorrow":3495,"wealth":3496,"failed":3497,"moments":3498,"trem":3499,"worthy":3500,"bob":3501,"bridge":3502,"##isters":3503,"univers":3504,"mighty":3505,"rule":3506,"##oes":3507,"myster":3508,"##theless":3509,"nose":3510,"##ker":3511,"counten":3512,"##gs":3513,"judgment":3514,"ham":3515,"wants":3516,"sacrif":3517,"ordered":3518,"nob":3519,"nevertheless":3520,"shape":3521,"##iments":3522,"sele":3523,"odd":3524,"support":3525,"method":3526,"regret":3527,"desper":3528,"bon":3529,"dun":3530,"##min":3531,"dressed":3532,"ol":3533,"##istic":3534,"smiling":3535,"tremb":3536,"hate":3537,"##asc":3538,"upper":3539,"occurred":3540,"pu":3541,"instru":3542,"##cer":3543,"tor":3544,"special":3545,"mercy":3546,"detail":3547,"tale":3548,"tar":3549,"listened":3550,"steam":3551,"material":3552,"##ially":3553,"points":3554,"throw":3555,"##att":3556,"shock":3557,"louis":3558,"poem":3559,"##pet":3560,"subst":3561,"fierce":3562,"unfortun":3563,"shel":3564,"arth":3565,"noticed":3566,"organ":3567,"relief":3568,"soldier":3569,"##oll":3570,"stage":3571,"servants":3572,"hearts":3573,"hal":3574,"laughing":3575,"nearer":3576,"##erous":3577,"vig":3578,"dwell":3579,"pos":3580,"##ades":3581,"fighting":3582,"shoot":3583,"pan":3584,"brief":3585,"##orious":3586,"extraord":3587,"ale":3588,"hurry":3589,"cit":3590,"advanced":3591,"sar":3592,"august":3593,"neighbour":3594,"aid":3595,"stead":3596,"##using":3597,"assured":3598,"movement":3599,"content":3600,"chamber":3601,"##quis":3602,"sunday":3603,"cool":3604,"##field":3605,"parli":3606,"lands":3607,"possibly":3608,"fully":3609,"wore":3610,"actually":3611,"ban":3612,"accident":3613,"##ification":3614,"##uction":3615,"dangerous":3616,"mistress":3617,"skin":3618,"growing":3619,"##ables":3620,"record":3621,"iii":3622,"carefully":3623,"yester":3624,"gle":3625,"sex":3626,"foolish":3627,"##asons":3628,"glory":3629,"novel":3630,"expressed":3631,"favor":3632,"inside":3633,"ghost":3634,"##kin":3635,"worked":3636,"proof":3637,"amb":3638,"drove":3639,"afford":3640,"teeth":3641,"wag":3642,"arthur":3643,"pieces":3644,"driven":3645,"yesterday":3646,"admitted":3647,"footnote":3648,"ener":3649,"exerc":3650,"mile":3651,"huge":3652,"##acle":3653,"scre":3654,"obey":3655,"rooms":3656,"similar":3657,"usually":3658,"sac":3659,"inhab":3660,"asse":3661,"excit":3662,"directly":3663,"rul":3664,"demanded":3665,"jump":3666,"##usted":3667,"sooner":3668,"liberty":3669,"tempt":3670,"freed":3671,"##illy":3672,"persu":3673,"moving":3674,"ships":3675,"labour":3676,"franc":3677,"noise":3678,"grim":3679,"couple":3680,"importance":3681,"satisfaction":3682,"indign":3683,"powers":3684,"sev":3685,"nodd":3686,"parliament":3687,"##night":3688,"##ension":3689,"joined":3690,"advice":3691,"welcome":3692,"ideas":3693,"instantly":3694,"mach":3695,"keen":3696,"philip":3697,"iss":3698,"capital":3699,"science":3700,"compar":3701,"cup":3702,"sympathy":3703,"singular":3704,"##eping":3705,"supper":3706,"##enn":3707,"events":3708,"countenance":3709,"##acc":3710,"dreadful":3711,"##key":3712,"##with":3713,"leading":3714,"princess":3715,"confess":3716,"awful":3717,"##alous":3718,"gathered":3719,"park":3720,"paused":3721,"entr":3722,"busy":3723,"benef":3724,"##ural":3725,"rare":3726,"diss":3727,"succeeded":3728,"##aud":3729,"remind":3730,"sum":3731,"betr":3732,"##ication":3733,"##ulf":3734,"excitement":3735,"marked":3736,"bore":3737,"companions":3738,"named":3739,"surface":3740,"suffered":3741,"impat":3742,"pier":3743,"seized":3744,"played":3745,"stairs":3746,"minister":3747,"particularly":3748,"wet":3749,"remarkable":3750,"lifted":3751,"advance":3752,"subm":3753,"##hold":3754,"aut":3755,"vic":3756,"equally":3757,"seek":3758,"bos":3759,"##con":3760,"suit":3761,"fred":3762,"##aval":3763,"century":3764,"##pper":3765,"splendid":3766,"terror":3767,"travel":3768,"stones":3769,"despair":3770,"impression":3771,"20":3772,"occupied":3773,"somebody":3774,"##aries":3775,"amaz":3776,"club":3777,"##ky":3778,"belief":3779,"guns":3780,"##ette":3781,"yield":3782,"imagination":3783,"ceased":3784,"hearing":3785,"##gl":3786,"seated":3787,"concerned":3788,"begun":3789,"portion":3790,"voy":3791,"hence":3792,"mistake":3793,"##ensive":3794,"##cription":3795,"popular":3796,"birth":3797,"exte":3798,"flat":3799,"fet":3800,"##acity":3801,"buy":3802,"taught":3803,"##for":3804,"##angers":3805,"price":3806,"recoll":3807,"horn":3808,"wounded":3809,"minds":3810,"pardon":3811,"hell":3812,"plants":3813,"double":3814,"##oci":3815,"join":3816,"comr":3817,"##ville":3818,"smith":3819,"extraordinary":3820,"plant":3821,"ly":3822,"calling":3823,"superior":3824,"season":3825,"loc":3826,"regarded":3827,"##ology":3828,"##__":3829,"ice":3830,"necessity":3831,"lin":3832,"excl":3833,"##zy":3834,"possessed":3835,"_d":3836,"print":3837,"undert":3838,"dish":3839,"##emb":3840,"##isc":3841,"##aming":3842,"proceeded":3843,"flesh":3844,"##erve":3845,"prospect":3846,"##iance":3847,"pulled":3848,"admit":3849,"partly":3850,"intellect":3851,"vir":3852,"resolved":3853,"##asped":3854,"knees":3855,"prisoner":3856,"blank":3857,"level":3858,"thinks":3859,"mont":3860,"ack":3861,"measure":3862,"shouted":3863,"baby":3864,"##iding":3865,"worn":3866,"kindly":3867,"struggle":3868,"kingdom":3869,"barb":3870,"exped":3871,"##ability":3872,"fruit":3873,"wes":3874,"interested":3875,"carrying":3876,"smooth":3877,"unhapp":3878,"jul":3879,"associ":3880,"pin":3881,"refused":3882,"original":3883,"rome":3884,"conscience":3885,"falling":3886,"accompl":3887,"clever":3888,"acknow":3889,"caut":3890,"powerful":3891,"sen":3892,"pause":3893,"somehow":3894,"unkn":3895,"contem":3896,"color":3897,"##ustomed":3898,"information":3899,"group":3900,"conditions":3901,"fairly":3902,"qual":3903,"absence":3904,"lion":3905,"profession":3906,"##estic":3907,"##ffe":3908,"serve":3909,"cliff":3910,"glanced":3911,"pill":3912,"feat":3913,"##ograph":3914,"lone":3915,"curi":3916,"##iffer":3917,"princip":3918,"##oul":3919,"##oos":3920,"bree":3921,"midst":3922,"appears":3923,"cart":3924,"\"--":3925,"ros":3926,"chang":3927,"tele":3928,"hosp":3929,"required":3930,"resist":3931,"doors":3932,"hut":3933,"contain":3934,"##leep":3935,"scott":3936,"##father":3937,"flower":3938,"hint":3939,"cam":3940,"tot":3941,"dollars":3942,"robert":3943,"hopes":3944,"comfortable":3945,"asleep":3946,"brill":3947,"roman":3948,"united":3949,"distress":3950,"##orous":3951,"served":3952,"flor":3953,"polic":3954,"unknown":3955,"vague":3956,"voices":3957,"choose":3958,"jan":3959,"education":3960,"##ancing":3961,"elder":3962,"cult":3963,"pil":3964,"excuse":3965,"rush":3966,"corre":3967,"indians":3968,"governor":3969,"##erved":3970,"daily":3971,"gain":3972,"acquaintance":3973,"presented":3974,"##right":3975,"event":3976,"--'":3977,"weary":3978,"cig":3979,"ara":3980,"boats":3981,"##espond":3982,"thomas":3983,"saf":3984,"indiffer":3985,"##bid":3986,"clearly":3987,"correspond":3988,"##llen":3989,"brain":3990,"mons":3991,"size":3992,"temple":3993,"stands":3994,"lovely":3995,"##thus":3996,"citiz":3997,"proport":3998,"hoped":3999,"severe":4000,"explan":4001,"##wick":4002,"enemies":4003,"ment":4004,"loose":4005,"sought":4006,"philosoph":4007,"rh":4008,"retreat":4009,"useful":4010,"##ainted":4011,"thrust":4012,"##ik":4013,"jes":4014,"remains":4015,"##ading":4016,"plenty":4017,"thunder":4018,"military":4019,"fill":4020,"credit":4021,"interp":4022,"strike":4023,"gay":4024,"##abel":4025,"rag":4026,"kindness":4027,"##umber":4028,"gro":4029,"hole":4030,"dignity":4031,"##rant":4032,"drunk":4033,"desert":4034,"schem":4035,"memb":4036,"dogs":4037,"fare":4038,"excited":4039,"task":4040,"exceed":4041,"waters":4042,"mood":4043,"##aker":4044,"intention":4045,"frag":4046,"somewhere":4047,"wisdom":4048,"##lied":4049,"baron":4050,"lawy":4051,"asking":4052,"principle":4053,"ruin":4054,"treated":4055,"greek":4056,"##racted":4057,"##stand":4058,"##bits":4059,"##ss":4060,"freedom":4061,"mult":4062,"##istr":4063,"_h":4064,"##oly":4065,"style":4066,"assemb":4067,"##ef":4068,"joe":4069,"##ourse":4070,"##elt":4071,"consequence":4072,"respons":4073,"sprang":4074,"##urd":4075,"anger":4076,"highest":4077,"relie":4078,"crew":4079,"buck":4080,"withd":4081,"ahead":4082,"wash":4083,"dying":4084,"message":4085,"professor":4086,"wholly":4087,"##pap":4088,"##ocr":4089,"arrival":4090,"##ulated":4091,"thanks":4092,"lover":4093,"mud":4094,"##ldom":4095,"contrary":4096,"##ois":4097,"gradually":4098,"mate":4099,"manage":4100,"completely":4101,"closely":4102,"described":4103,"colle":4104,"delicate":4105,"reasons":4106,"##uments":4107,"curiosity":4108,"escaped":4109,"rig":4110,"amid":4111,"##ieur":4112,"trif":4113,"25":4114,"illustration":4115,"etern":4116,"distr":4117,"protest":4118,"fought":4119,"moreover":4120,"##get":4121,"##nes":4122,"dor":4123,"guide":4124,"rif":4125,"pressed":4126,"innocent":4127,"murmured":4128,"unex":4129,"contempt":4130,"forgive":4131,"careful":4132,"obv":4133,"job":4134,"##ruction":4135,"accustomed":4136,"##ov":4137,"frightened":4138,"centre":4139,"##isher":4140,"proc":4141,"desired":4142,"washing":4143,"burning":4144,"accepted":4145,"religious":4146,"softly":4147,"david":4148,"extent":4149,"sell":4150,"##xed":4151,"tend":4152,"inquired":4153,"clouds":4154,"behold":4155,"prim":4156,"practice":4157,"cord":4158,"trail":4159,"interrupted":4160,"##astic":4161,"##bb":4162,"faithful":4163,"wheel":4164,"lit":4165,"ended":4166,"vision":4167,"##oring":4168,"stuff":4169,"##ustri":4170,"##ases":4171,"nodded":4172,"doubtless":4173,"immense":4174,"handed":4175,"horror":4176,"younger":4177,"rapidly":4178,"principles":4179,"deeply":4180,"bearing":4181,"##mas":4182,"##kins":4183,"divine":4184,"sentiment":4185,"spo":4186,"stories":4187,"anxiety":4188,"whenever":4189,"yard":4190,"flight":4191,"fields":4192,"##iber":4193,"exch":4194,"dawn":4195,"stan":4196,"famous":4197,"risk":4198,"female":4199,"ease":4200,"bew":4201,"##plic":4202,"##aling":4203,"members":4204,"enthus":4205,"hadn":4206,"enthusi":4207,"craw":4208,"##ourable":4209,"pipe":4210,"miserable":4211,"amuse":4212,"stars":4213,"##cip":4214,"rum":4215,"##while":4216,"fifteen":4217,"rushed":4218,"##asant":4219,"avoid":4220,"utterly":4221,"##erson":4222,"ox":4223,"hollow":4224,"needed":4225,"##iable":4226,"haw":4227,"ling":4228,"lam":4229,"##omm":4230,"##ae":4231,"hidden":4232,"volume":4233,"asham":4234,"aband":4235,"capable":4236,"merch":4237,"##iot":4238,"sink":4239,"prompt":4240,"monsieur":4241,".[":4242,"seldom":4243,"ashamed":4244,"playing":4245,"safety":4246,";\"":4247,"##stairs":4248,"papa":4249,"recall":4250,"newspap":4251,"kitch":4252,"independ":4253,"##oking":4254,"national":4255,"parties":4256,"convin":4257,"##inging":4258,"helped":4259,"ach":4260,"thoroughly":4261,"##ode":4262,"consideration":4263,"gently":4264,"obtain":4265,"rolled":4266,"reckon":4267,"aver":4268,"ze":4269,"##lessly":4270,"_the":4271,"visible":4272,"uncom":4273,"trick":4274,"fro":4275,"##iven":4276,"##mber":4277,"approached":4278,"gods":4279,"unable":4280,"arranged":4281,"gained":4282,"obst":4283,"fold":4284,"##ashing":4285,"council":4286,"##room":4287,"mystery":4288,"engage":4289,"manif":4290,"sha":4291,"rust":4292,"relations":4293,"throat":4294,"stout":4295,"_p":4296,"lucy":4297,"000":4298,"addressed":4299,"fee":4300,"grief":4301,"##onscious":4302,"sup":4303,"##reci":4304,"constant":4305,"entrance":4306,"unus":4307,"pad":4308,"scen":4309,"larger":4310,"fled":4311,"##atory":4312,"sacred":4313,"etc":4314,"30":4315,"evident":4316,"stepped":4317,"virtue":4318,"creatures":4319,"exhib":4320,"invol":4321,"sheep":4322,"log":4323,"crim":4324,"vers":4325,"card":4326,"coach":4327,"clo":4328,"suffering":4329,"critic":4330,"spare":4331,"##ien":4332,"store":4333,"hunting":4334,"leap":4335,"bosom":4336,"##rent":4337,"inhabit":4338,"##irm":4339,"mission":4340,"weap":4341,"flying":4342,"title":4343,"ral":4344,"conclusion":4345,"hit":4346,"meanwhile":4347,"key":4348,"##gypt":4349,"shell":4350,"stiff":4351,"##ointment":4352,"##erning":4353,"bringing":4354,"##ales":4355,"_b":4356,"extremely":4357,"##arse":4358,"greet":4359,"##enger":4360,"establish":4361,"proposed":4362,"figures":4363,"voyage":4364,"mamma":4365,"##kind":4366,"##igned":4367,"genius":4368,"aim":4369,"kitchen":4370,"returning":4371,"wondered":4372,"bul":4373,"egypt":4374,"##hen":4375,"irish":4376,"sounds":4377,"infinite":4378,"everywhere":4379,"##iece":4380,"##asing":4381,"##win":4382,"bought":4383,"finger":4384,"nerv":4385,"lest":4386,"produce":4387,"spanish":4388,"mysterious":4389,"##iqu":4390,"throughout":4391,"breaking":4392,"resemb":4393,"notes":4394,"21":4395,"tight":4396,"##utation":4397,"showing":4398,"clergy":4399,"occasionally":4400,"friendly":4401,"choice":4402,"bord":4403,"##osen":4404,"knife":4405,"subjects":4406,"##pless":4407,"tent":4408,"jealous":4409,"tells":4410,"buried":4411,"unhappy":4412,"fever":4413,"compe":4414,"edward":4415,"highly":4416,"heat":4417,"meal":4418,"features":4419,"grate":4420,"disappeared":4421,"yo":4422,"practical":4423,"##lace":4424,"##illa":4425,"lonely":4426,"admiration":4427,"forgot":4428,"published":4429,"##nal":4430,"bran":4431,"gets":4432,"infer":4433,"mild":4434,"martin":4435,"confusion":4436,"caval":4437,"brothers":4438,"prepar":4439,"spec":4440,"circle":4441,"whil":4442,"grie":4443,"blame":4444,"##oused":4445,"scorn":4446,"env":4447,"laughter":4448,"##cher":4449,"manners":4450,"##gu":4451,"##izing":4452,"jac":4453,"charming":4454,"chosen":4455,"ital":4456,"plainly":4457,"##ller":4458,"labor":4459,"theory":4460,"unconscious":4461,"swept":4462,"##istol":4463,"becoming":4464,"precious":4465,"##off":4466,"cigar":4467,"inclined":4468,"cottage":4469,"careless":4470,"186":4471,"depth":4472,"removed":4473,"slightly":4474,"alarm":4475,"sport":4476,"signs":4477,"bath":4478,"quality":4479,"cere":4480,"magnific":4481,"##fulness":4482,"dw":4483,"displ":4484,"##ox":4485,"##opping":4486,"blessed":4487,"adop":4488,"reve":4489,"eth":4490,"##ential":4491,"reward":4492,"glim":4493,"eliz":4494,"##--------":4495,"observe":4496,"worship":4497,"negle":4498,"reven":4499,"24":4500,"22":4501,"restr":4502,"oce":4503,"concerning":4504,"hunt":4505,"accordingly":4506,"russ":4507,"objects":4508,"cattle":4509,"orn":4510,"picked":4511,"rendered":4512,"connected":4513,"wound":4514,"entertain":4515,"friendship":4516,"indul":4517,"tower":4518,"##ators":4519,"accompanied":4520,"distinguished":4521,"##acles":4522,"unto":4523,"previous":4524,"abb":4525,"ward":4526,"##iation":4527,"islands":4528,"feather":4529,"uneas":4530,"flung":4531,"poetry":4532,"interview":4533,"jane":4534,"wra":4535,"whist":4536,"##bor":4537,"lights":4538,"##inal":4539,"absurd":4540,"prayer":4541,"fleet":4542,"match":4543,"listening":4544,"doctr":4545,"constitution":4546,"delighted":4547,"rude":4548,"drift":4549,"obtained":4550,"wishes":4551,"##ta":4552,"waste":4553,"sid":4554,"grant":4555,"cheeks":4556,"slave":4557,"sons":4558,"dram":4559,"##rich":4560,"project":4561,"prosper":4562,"characters":4563,"_w":4564,"bodies":4565,"##ulse":4566,"alas":4567,"mankind":4568,"sour":4569,"lieut":4570,"wing":4571,"ech":4572,"##vere":4573,"hers":4574,"easter":4575,"riding":4576,"margar":4577,"steady":4578,"francis":4579,"aspect":4580,"dig":4581,"queer":4582,"purch":4583,"##very":4584,"trial":4585,"##aks":4586,"pushed":4587,"kings":4588,"literature":4589,"charl":4590,"proportion":4591,"##utions":4592,"xv":4593,"writ":4594,"faced":4595,"increased":4596,"scotland":4597,"theat":4598,"##rif":4599,"##cture":4600,"lan":4601,"whilst":4602,"abroad":4603,"##uding":4604,"##iday":4605,"desperate":4606,"member":4607,"duties":4608,"melanch":4609,"dance":4610,"##oqu":4611,"##iture":4612,"emer":4613,"##va":4614,"ming":4615,"unfortunate":4616,"notion":4617,"strict":4618,"ralph":4619,"alice":4620,"##ips":4621,"madam":4622,"older":4623,"slept":4624,"charm":4625,"police":4626,"'.":4627,"elect":4628,"sufficiently":4629,"##of":4630,"##eous":4631,"appreci":4632,"discovery":4633,"quarrel":4634,"brand":4635,"secure":4636,"kissed":4637,"merry":4638,"gazed":4639,"cheek":4640,"preach":4641,"hitherto":4642,"cell":4643,"patience":4644,"margaret":4645,"supply":4646,"shade":4647,"intense":4648,"##inder":4649,"23":4650,"principal":4651,"##acon":4652,"stup":4653,"nur":4654,"assistance":4655,"brow":4656,"becomes":4657,"histor":4658,"craft":4659,"ped":4660,"natives":4661,"habits":4662,"##eding":4663,"emotion":4664,"ocean":4665,"steep":4666,"rope":4667,"eh":4668,"managed":4669,"spend":4670,"melancholy":4671,"##ped":4672,"rab":4673,"male":4674,"explanation":4675,"landl":4676,"forehead":4677,"mour":4678,"##uing":4679,"intim":4680,"armed":4681,"exha":4682,"plat":4683,"dave":4684,"column":4685,"understanding":4686,"sacrifice":4687,"##cr":4688,"stared":4689,"lock":4690,"lux":4691,"##urity":4692,"beard":4693,"strongly":4694,"##ancy":4695,"active":4696,"grandfather":4697,"bones":4698,"##umbled":4699,"apr":4700,"unb":4701,"suspicion":4702,"protect":4703,"singing":4704,"lately":4705,"##ander":4706,"fert":4707,"##pire":4708,"helpless":4709,"mounted":4710,"##a_":4711,"prisoners":4712,"type":4713,"abst":4714,"numbers":4715,"pred":4716,"##board":4717,"precise":4718,"##onstr":4719,"##ids":4720,"##ailed":4721,"intelligence":4722,"informed":4723,"perse":4724,"employed":4725,"unexpected":4726,"frequently":4727,"widow":4728,"spark":4729,"lieuten":4730,"##house":4731,"puzz":4732,"wre":4733,"##fall":4734,"troubles":4735,"rage":4736,"wretched":4737,"conver":4738,"awa":4739,"relation":4740,"feared":4741,"spl":4742,"clerk":4743,"##udd":4744,"bottle":4745,"conven":4746,"profound":4747,"domestic":4748,"commission":4749,"angel":4750,"##rem":4751,"inher":4752,"weakness":4753,"##geon":4754,"fox":4755,"appreh":4756,"##agger":4757,"lighted":4758,"intend":4759,"block":4760,"dreams":4761,"fourth":4762,"affected":4763,"_t":4764,"rad":4765,"plans":4766,"plate":4767,"probable":4768,"##ken":4769,"revolution":4770,"abrupt":4771,"disposed":4772,"argument":4773,"squire":4774,"interests":4775,"quant":4776,"afric":4777,"immediate":4778,"##bre":4779,"bol":4780,"_f":4781,"perceived":4782,"asc":4783,"uttered":4784,"scra":4785,"hanging":4786,"addition":4787,"energy":4788,"convinced":4789,"bowed":4790,"##inent":4791,"souls":4792,"quarters":4793,"lordship":4794,"lamp":4795,"walter":4796,"literary":4797,"hyp":4798,"surrounded":4799,"horrible":4800,"##pse":4801,"ages":4802,"attitude":4803,"repub":4804,"crime":4805,"nap":4806,"boots":4807,"virgin":4808,"##net":4809,"violent":4810,"brig":4811,"subs":4812,"physical":4813,"##ese":4814,"stretched":4815,"##isions":4816,"beach":4817,"delightful":4818,"ax":4819,"phr":4820,"shining":4821,"brook":4822,"ends":4823,"generous":4824,"base":4825,"deliber":4826,"consciousness":4827,"guil":4828,"correct":4829,"gest":4830,"ken":4831,"lack":4832,"leaning":4833,"household":4834,"regiment":4835,"hastily":4836,"setting":4837,"patient":4838,"trembling":4839,"whence":4840,"stret":4841,"consent":4842,"182":4843,"##atively":4844,"##eter":4845,"shake":4846,"##owned":4847,"raise":4848,"##omp":4849,"provided":4850,"continue":4851,"leaf":4852,"chest":4853,"##unted":4854,"gaze":4855,"term":4856,"solid":4857,"chiefly":4858,"arose":4859,"smell":4860,"parents":4861,"artist":4862,"aven":4863,"lawyer":4864,"##ption":4865,"waist":4866,"##isp":4867,"ignorant":4868,"rear":4869,"description":4870,"composed":4871,"nin":4872,"rang":4873,"painted":4874,"repro":4875,"likewise":4876,"announced":4877,"##umes":4878,"##bly":4879,"established":4880,"os":4881,"cher":4882,"series":4883,"apt":4884,"##oms":4885,"domin":4886,"##icip":4887,"western":4888,"engine":4889,"magic":4890,"##ims":4891,"collect":4892,"leaned":4893,"##ounce":4894,"appointed":4895,"defence":4896,"frame":4897,"farmer":4898,"india":4899,"throne":4900,"shelter":4901,"##ization":4902,"egg":4903,"experi":4904,"##ha":4905,"skill":4906,"drag":4907,"anywhere":4908,"efforts":4909,"negro":4910,"warri":4911,"warning":4912,"acquainted":4913,"26":4914,"nort":4915,"stupid":4916,"enorm":4917,"##abeth":4918,"##onic":4919,"pig":4920,"eagerly":4921,"exception":4922,"##eem":4923,"delay":4924,"shaking":4925,"##lebr":4926,"inhabitants":4927,"venture":4928,"striking":4929,"##uries":4930,"unl":4931,"pow":4932,"opinions":4933,"guest":4934,"##chan":4935,"republic":4936,"instit":4937,"curtain":4938,"resumed":4939,"useless":4940,"encoun":4941,"meat":4942,"jesus":4943,"guilty":4944,"calls":4945,"oct":4946,"sank":4947,"resc":4948,"anch":4949,"diam":4950,"nurse":4951,"nons":4952,"ridic":4953,"brilliant":4954,"needs":4955,"refuse":4956,"hesitated":4957,"control":4958,"celebr":4959,"shows":4960,"infant":4961,"##ault":4962,"misery":4963,"reform":4964,"##ston":4965,"dir":4966,"intent":4967,"guests":4968,"desir":4969,"swell":4970,"emper":4971,"lane":4972,"brid":4973,"spiritual":4974,"##ulate":4975,"writer":4976,"##vereign":4977,"invest":4978,"sang":4979,"##zed":4980,"calcul":4981,"numerous":4982,"coloured":4983,"##bridge":4984,"branches":4985,"sovereign":4986,"##ffee":4987,"sax":4988,"market":4989,"difficulties":4990,"muttered":4991,"interf":4992,"proph":4993,"27":4994,"perpet":4995,"lieutenant":4996,"shouldn":4997,"##inate":4998,"##rit":4999,"recovered":5000,"asce":5001,"fired":5002,"propos":5003,"final":5004,"rights":5005,"sunsh":5006,"exercise":5007,"pistol":5008,"preced":5009,"text":5010,"shadows":5011,"##ubb":5012,"scient":5013,"##ivity":5014,"nations":5015,"outl":5016,"slipped":5017,"obsc":5018,"praise":5019,"successful":5020,"arab":5021,"##gue":5022,"elizabeth":5023,"vac":5024,"secretary":5025,"##rees":5026,"parl":5027,"valu":5028,"vul":5029,"retired":5030,"chin":5031,"track":5032,"coffee":5033,"bark":5034,"unm":5035,"troubled":5036,"gates":5037,"attract":5038,"heir":5039,"fatal":5040,"##ipping":5041,"fanci":5042,"##lers":5043,"request":5044,"rollo":5045,"##ilities":5046,"ard":5047,"tide":5048,"recomm":5049,"##char":5050,"appeal":5051,"ug":5052,"wings":5053,"##col":5054,"victory":5055,"##cts":5056,"sees":5057,"scattered":5058,"cries":5059,"descended":5060,"approaching":5061,"rat":5062,"##za":5063,"chim":5064,"##ulted":5065,"##port":5066,"##urance":5067,"swall":5068,"idle":5069,"vanished":5070,"humour":5071,"mans":5072,"instr":5073,"##leness":5074,"28":5075,"jones":5076,"gran":5077,"effects":5078,"pir":5079,"president":5080,"##uge":5081,"181":5082,"departure":5083,"luc":5084,"##icate":5085,"loving":5086,"estate":5087,"scheme":5088,"condem":5089,"marsh":5090,"turns":5091,"##ghter":5092,"utmost":5093,"views":5094,"##ixt":5095,"college":5096,"ours":5097,"glorious":5098,"amongst":5099,"bye":5100,"actual":5101,"union":5102,"humble":5103,"washington":5104,"concluded":5105,"hearted":5106,"gift":5107,"##otes":5108,"nonsense":5109,"adventure":5110,"grasp":5111,"max":5112,"29":5113,"bride":5114,"##ums":5115,"inex":5116,"##pher":5117,"ju":5118,"nearest":5119,"italian":5120,"##achel":5121,"flash":5122,"cru":5123,"flew":5124,"od":5125,"arist":5126,"occasions":5127,"dared":5128,"##aining":5129,"convey":5130,"##acious":5131,"transl":5132,"##rier":5133,"lunch":5134,"sisters":5135,"##bour":5136,"staring":5137,"##iform":5138,"fried":5139,"connection":5140,"##itate":5141,"wolf":5142,"##jud":5143,"pron":5144,"rib":5145,"giant":5146,"circumstance":5147,"sunshine":5148,"##iel":5149,"##worth":5150,"thousands":5151,"##eld":5152,"privile":5153,"oak":5154,"libr":5155,"pac":5156,"acknowled":5157,"##uch":5158,"##ads":5159,"##more":5160,"permitted":5161,"contempl":5162,"unp":5163,"devoted":5164,"bost":5165,"acted":5166,"nervous":5167,"range":5168,"specul":5169,"##ura":5170,"clar":5171,"##rick":5172,"june":5173,"englishman":5174,"contained":5175,"goods":5176,"wooden":5177,"mistaken":5178,"sept":5179,"crying":5180,"mental":5181,"farewell":5182,"forbid":5183,"tort":5184,"##eps":5185,"painful":5186,"fancied":5187,"require":5188,"yonder":5189,"gallant":5190,"oppress":5191,"sout":5192,"##olic":5193,"banks":5194,"cultiv":5195,"image":5196,"protection":5197,"cheerful":5198,"properly":5199,"loft":5200,"##ram":5201,"throwing":5202,"##alt":5203,"seriously":5204,"##arrass":5205,"##edy":5206,"remarks":5207,"official":5208,"borne":5209,"gracious":5210,"insisted":5211,"headed":5212,"assure":5213,"##opher":5214,"attended":5215,"righteous":5216,"##atched":5217,"##sey":5218,"date":5219,"##engers":5220,"improve":5221,"prud":5222,"violence":5223,"knocked":5224,"----\"":5225,"attached":5226,"##ipper":5227,"##cast":5228,"##zing":5229,"alex":5230,"##liness":5231,"recon":5232,"folk":5233,"cared":5234,"patri":5235,"deny":5236,"sleeping":5237,"183":5238,"flood":5239,"contri":5240,"jimmy":5241,"reference":5242,"tied":5243,"sher":5244,"counsel":5245,"parted":5246,"slaves":5247,"sorts":5248,"imagined":5249,"folks":5250,"##eman":5251,"sighed":5252,"commanded":5253,"sailor":5254,"poison":5255,"emperor":5256,"nav":5257,"##apt":5258,"shakes":5259,"gravely":5260,"recognized":5261,"freely":5262,"ire":5263,"##ouring":5264,"divided":5265,"##udes":5266,"anyone":5267,"introduced":5268,"##nat":5269,"steadily":5270,"cheap":5271,"serge":5272,"gazing":5273,"ugly":5274,"leader":5275,"offe":5276,"counter":5277,"lap":5278,"cave":5279,"##standing":5280,"sinc":5281,"breeze":5282,"italy":5283,"astonishment":5284,"##i_":5285,"wondering":5286,"consult":5287,"byron":5288,"##uf":5289,"begged":5290,"rifle":5291,"alike":5292,"eternal":5293,"christmas":5294,"seas":5295,"sharply":5296,"variety":5297,"suspect":5298,"towns":5299,"details":5300,"groan":5301,"slightest":5302,"pointing":5303,"learning":5304,"naked":5305,"consist":5306,"directed":5307,"disci":5308,"uniform":5309,"seam":5310,"apartment":5311,"billy":5312,"##ws":5313,"hated":5314,"marble":5315,"ens":5316,"refr":5317,"sear":5318,"toler":5319,"eve":5320,"incident":5321,"treasure":5322,"stronger":5323,"enjoyed":5324,"toss":5325,"clay":5326,"waves":5327,"##orne":5328,"cann":5329,"jose":5330,"embarrass":5331,"hungry":5332,"meantime":5333,"beheld":5334,"shone":5335,"eyed":5336,"feast":5337,"##atch":5338,"haste":5339,"ignorance":5340,"conviction":5341,"attempted":5342,"belonged":5343,"canoe":5344,"winds":5345,"spani":5346,"eleven":5347,"ot":5348,"compass":5349,"strangers":5350,"renew":5351,"portra":5352,"wi":5353,"pall":5354,"separate":5355,"##aph":5356,"follows":5357,"acts":5358,"torn":5359,"##ares":5360,"awake":5361,"destroyed":5362,"##osure":5363,"manifest":5364,"heavily":5365,"overt":5366,"##lest":5367,"cock":5368,"expedition":5369,"contrast":5370,"aloud":5371,"edition":5372,"movements":5373,"bask":5374,"vulgar":5375,"grateful":5376,"slope":5377,"ia":5378,"stamp":5379,"wilder":5380,"northern":5381,"scientific":5382,"agreeable":5383,"statement":5384,"article":5385,"##....":5386,"_l":5387,"##othing":5388,"##otted":5389,"eating":5390,"resolution":5391,"visitor":5392,"ses":5393,"##agg":5394,"compreh":5395,"confident":5396,"awk":5397,"obed":5398,"withdra":5399,"##cest":5400,"perple":5401,"colon":5402,"assert":5403,"##ella":5404,"kinds":5405,"##fa":5406,"##rand":5407,"oath":5408,"gif":5409,"grin":5410,"unusual":5411,"##ds":5412,"magnificent":5413,"ideal":5414,"defend":5415,"delivered":5416,"coo":5417,"rested":5418,"countries":5419,"awkward":5420,"##eg":5421,"crack":5422,"ath":5423,"maybe":5424,"##edge":5425,"earlier":5426,"##unning":5427,"##ological":5428,"wake":5429,"mead":5430,"ident":5431,"changes":5432,"astonished":5433,"sket":5434,"##pended":5435,"complex":5436,"jean":5437,"crowded":5438,"ner":5439,"trace":5440,"qualities":5441,"reproach":5442,"##elle":5443,"startled":5444,"##inity":5445,"anticip":5446,"shed":5447,"deserted":5448,"folly":5449,"##rence":5450,"jun":5451,"##ana":5452,"struct":5453,"ireland":5454,"plun":5455,"##bon":5456,"grounds":5457,"echo":5458,"##uits":5459,"##othy":5460,"disposition":5461,"families":5462,"rele":5463,"tax":5464,"_y":5465,"flour":5466,"district":5467,"pages":5468,"neat":5469,"sentence":5470,"career":5471,"sensible":5472,"visited":5473,"##che":5474,"##oser":5475,"driving":5476,"crept":5477,"lee":5478,"current":5479,"rud":5480,"archite":5481,"hunter":5482,"nest":5483,"fil":5484,"observation":5485,"surround":5486,"swim":5487,"landed":5488,"cad":5489,"considering":5490,"firmly":5491,"causes":5492,"steel":5493,"butter":5494,"dancing":5495,"jon":5496,"tick":5497,"sixty":5498,"paint":5499,"roar":5500,"element":5501,"constantly":5502,"valuable":5503,"pink":5504,"inquiry":5505,"shortly":5506,"forces":5507,"pursued":5508,"increase":5509,"stephen":5510,"nights":5511,"copy":5512,"represented":5513,"flame":5514,"touching":5515,"gratitude":5516,"harold":5517,"surv":5518,"pant":5519,"ruth":5520,"bade":5521,"leaped":5522,"sincere":5523,"##pel":5524,"saddle":5525,"shoes":5526,"##conom":5527,"##etr":5528,"enterpr":5529,"tremend":5530,"flag":5531,"econom":5532,"##rous":5533,"loves":5534,"ashore":5535,"dragged":5536,"##inction":5537,"committed":5538,"gos":5539,"mechan":5540,"stoop":5541,"earnestly":5542,"curs":5543,"entering":5544,"##umbling":5545,"masters":5546,"##uary":5547,"eastern":5548,"admiral":5549,"disturbed":5550,"garr":5551,"stair":5552,"lads":5553,"swear":5554,"enormous":5555,"##kerchief":5556,"tear":5557,"mah":5558,"##arsh":5559,"dus":5560,"andrew":5561,"suggestion":5562,"pace":5563,"##low":5564,"chain":5565,"sins":5566,"southern":5567,"salt":5568,"propri":5569,"purple":5570,"les":5571,"consol":5572,"impulse":5573,"dur":5574,"dutch":5575,"favourite":5576,"hamm":5577,"outer":5578,"milk":5579,"nut":5580,"##peare":5581,"barn":5582,"reality":5583,"destruction":5584,"bushes":5585,"handkerchief":5586,"ned":5587,"mul":5588,"##is_":5589,"sore":5590,"conceal":5591,"##ache":5592,"sob":5593,"doctrine":5594,"loyal":5595,"wave":5596,"selfish":5597,"##ington":5598,"##sm":5599,"universal":5600,"om":5601,"smaller":5602,"fears":5603,"silk":5604,"##chester":5605,"tum":5606,"minded":5607,"fulf":5608,"##vert":5609,"articles":5610,"july":5611,"empire":5612,"chose":5613,"##ula":5614,"smoking":5615,"murd":5616,"stayed":5617,"##pent":5618,"##erate":5619,"unre":5620,"decision":5621,"respectable":5622,"##opes":5623,"apparent":5624,"namely":5625,"fairy":5626,"wandering":5627,"library":5628,"##rels":5629,"commer":5630,"maiden":5631,"branch":5632,"philosophy":5633,"uncertain":5634,"##attering":5635,"##atives":5636,"gal":5637,"signal":5638,"##mes":5639,"non":5640,"##uine":5641,"##burg":5642,"objection":5643,"contents":5644,"##xter":5645,"obvious":5646,"locked":5647,"heath":5648,"bust":5649,"soil":5650,"examined":5651,"##ctor":5652,"mock":5653,"##iveness":5654,"hook":5655,"drinking":5656,"dearest":5657,"boston":5658,"fid":5659,"##rim":5660,"##omin":5661,"mich":5662,"bun":5663,"poured":5664,"mode":5665,"sergeant":5666,"mixed":5667,"sie":5668,"yer":5669,"county":5670,"falls":5671,"tyr":5672,"kate":5673,"bewild":5674,"pars":5675,"owing":5676,"##lies":5677,"dise":5678,"glo":5679,"thence":5680,"beaten":5681,"prejud":5682,"continually":5683,"compelled":5684,"ascertain":5685,"fel":5686,"fed":5687,"duch":5688,"disappointed":5689,"burned":5690,"mischief":5691,"nurs":5692,"thine":5693,"ray":5694,"gardens":5695,"beasts":5696,"atm":5697,"countess":5698,"attrib":5699,"encoura":5700,"proble":5701,"].":5702,"spain":5703,"adam":5704,"atmosp":5705,"peril":5706,"fix":5707,"##ray":5708,"sailed":5709,"compet":5710,"contrib":5711,"lords":5712,"mortal":5713,"gang":5714,"##itz":5715,"##grat":5716,"musc":5717,"##ada":5718,"##isy":5719,"safely":5720,"alb":5721,"swiftly":5722,"##abled":5723,"arrangement":5724,"local":5725,"distinctly":5726,"fac":5727,"services":5728,"descend":5729,"horiz":5730,"classes":5731,"ancest":5732,"coward":5733,"quantity":5734,"_n":5735,"relieved":5736,"unple":5737,"savages":5738,"barbar":5739,"vessels":5740,"fires":5741,"badly":5742,"intellectual":5743,"##just":5744,"assumed":5745,"##cel":5746,"wherever":5747,"##eral":5748,"sober":5749,"##quisite":5750,"vivid":5751,"elb":5752,"absor":5753,"daylight":5754,"daughters":5755,"dismiss":5756,"midnight":5757,"champ":5758,"jest":5759,"ingen":5760,"incon":5761,"surre":5762,"decor":5763,"tu":5764,"accur":5765,"parish":5766,"benefit":5767,"dining":5768,"satur":5769,"check":5770,"friedrich":5771,"##och":5772,"remaining":5773,"##iser":5774,"##inks":5775,"lightly":5776,"solitary":5777,"veh":5778,"punishment":5779,"finds":5780,"##can":5781,"dil":5782,"##ifying":5783,"diamond":5784,"abund":5785,"batt":5786,"ell":5787,"suspected":5788,"wander":5789,"recollect":5790,"definite":5791,"declare":5792,"hay":5793,"tomb":5794,"editor":5795,"doc":5796,"exquisite":5797,"departed":5798,"marched":5799,"merchant":5800,"superst":5801,"elsewhere":5802,"knee":5803,"nich":5804,"##arl":5805,"ruff":5806,"roger":5807,"gesture":5808,"glit":5809,"politics":5810,"urged":5811,"##isure":5812,"hind":5813,"failure":5814,"##olen":5815,"cleared":5816,"fores":5817,"extended":5818,"##==":5819,"fanny":5820,"jacob":5821,"audience":5822,"purposes":5823,"silly":5824,"sheet":5825,"footst":5826,"disgrace":5827,"precip":5828,"observ":5829,"doth":5830,"eloqu":5831,"burden":5832,"cunning":5833,"185":5834,"deeper":5835,"inch":5836,"helen":5837,"barg":5838,"reflection":5839,"##vity":5840,"romance":5841,"ethel":5842,"pool":5843,"neph":5844,"poems":5845,"applied":5846,"wrath":5847,"adventures":5848,"rolling":5849,"disgu":5850,"score":5851,"gig":5852,"owner":5853,"pursuit":5854,"desol":5855,"indignation":5856,"schol":5857,"rout":5858,"inse":5859,"maintain":5860,"consequences":5861,"goodness":5862,"signific":5863,"whit":5864,"noon":5865,"monarch":5866,"180":5867,"bert":5868,"abruptly":5869,"deem":5870,"smart":5871,"tob":5872,"unlike":5873,"sed":5874,"generation":5875,"##isation":5876,"##ari":5877,"##keep":5878,"dischar":5879,"exceedingly":5880,"leisure":5881,"buff":5882,"results":5883,"marks":5884,"humanity":5885,"##inger":5886,"pilgr":5887,"inner":5888,"deed":5889,"perceive":5890,"##plicity":5891,"##amm":5892,"31":5893,"compared":5894,"sending":5895,"hugh":5896,"confused":5897,"furnished":5898,"prose":5899,"impl":5900,"sailors":5901,"##lict":5902,"scenes":5903,"neighbor":5904,"##liest":5905,"na":5906,"reputation":5907,"drank":5908,"frequent":5909,"##vering":5910,"wanting":5911,"admin":5912,"##erted":5913,"plot":5914,"stated":5915,"disturb":5916,"ded":5917,"atmosphere":5918,"travelling":5919,"lesson":5920,"nephew":5921,"limbs":5922,"thither":5923,"tempor":5924,"afterward":5925,"joke":5926,"weigh":5927,"senses":5928,"##ante":5929,"reign":5930,"enthusiasm":5931,"heartily":5932,"disappointment":5933,"wy":5934,"separated":5935,"degrees":5936,"fisher":5937,"candle":5938,"invited":5939,");":5940,"comment":5941,"debt":5942,"goin":5943,"discussion":5944,"slip":5945,"cy":5946,"medic":5947,"exert":5948,"trusted":5949,"missed":5950,"tour":5951,"gown":5952,"harsh":5953,"railway":5954,"gover":5955,"frost":5956,"swung":5957,"absent":5958,"ted":5959,"deer":5960,"fame":5961,"reflect":5962,"printed":5963,"precisely":5964,"marquis":5965,"184":5966,"##oot":5967,"population":5968,"beings":5969,"landlord":5970,"rand":5971,"fetch":5972,"wedding":5973,"##vin":5974,"##idents":5975,"pup":5976,"wot":5977,"florence":5978,"romantic":5979,"brick":5980,"heavens":5981,"dou":5982,"ram":5983,"crossing":5984,"reject":5985,"excess":5986,"dart":5987,"##orse":5988,"ate":5989,"tones":5990,"pitch":5991,"fury":5992,"straw":5993,"wives":5994,"steamer":5995,"duchess":5996,"##itating":5997,"opposition":5998,"##isk":5999,"fasc":6000,"tid":6001,"##zan":6002,"tribe":6003,"central":6004,"amy":6005,"chuck":6006,"##olet":6007,"##gate":6008,"starting":6009,"eust":6010,"##greg":6011,"refuge":6012,"achie":6013,"##omed":6014,"emph":6015,"readily":6016,"parent":6017,"profit":6018,"##ols":6019,"soph":6020,"insist":6021,"inev":6022,"mingled":6023,"possibility":6024,"terrif":6025,"##ational":6026,"hopeless":6027,"inspect":6028,"dirty":6029,"sounded":6030,"_a":6031,"charged":6032,"laying":6033,"collected":6034,"lamb":6035,"speaks":6036,"haz":6037,"exhausted":6038,"strangely":6039,"amusement":6040,"seed":6041,"policy":6042,"concealed":6043,"joseph":6044,"xxx":6045,"modest":6046,"chape":6047,"strain":6048,"flock":6049,"gale":6050,"engagement":6051,"disag":6052,"theatre":6053,"permit":6054,"##withstanding":6055,"related":6056,"furniture":6057,"##ucing":6058,"machine":6059,"owe":6060,"##amation":6061,"granted":6062,"april":6063,"gil":6064,"notwithstanding":6065,"curse":6066,"reasonable":6067,"tremendous":6068,"fain":6069,"chann":6070,"execution":6071,"187":6072,"accomplished":6073,"acting":6074,"finish":6075,"specim":6076,"ventured":6077,"warn":6078,"citizens":6079,"cavalry":6080,"mast":6081,"committ":6082,"##ribly":6083,"development":6084,"examination":6085,"sust":6086,"raising":6087,"incred":6088,"entreat":6089,"newspaper":6090,"bloom":6091,"##omb":6092,"pine":6093,"179":6094,"roads":6095,"##enom":6096,"autumn":6097,"alter":6098,"coin":6099,"silently":6100,"comrades":6101,"messenger":6102,"surrender":6103,"ult":6104,"brush":6105,"supreme":6106,"victor":6107,"darling":6108,"spell":6109,"amused":6110,"essential":6111,"shy":6112,"remote":6113,"timid":6114,"patron":6115,"prayers":6116,"trump":6117,"journal":6118,"staff":6119,"runs":6120,"lur":6121,"boast":6122,"ruined":6123,"merc":6124,"wreck":6125,"puzzled":6126,"exposed":6127,"germany":6128,"##oman":6129,"tin":6130,"shiver":6131,"porter":6132,"reef":6133,"desk":6134,"knights":6135,"comrade":6136,"quiver":6137,"##ieties":6138,"directions":6139,"inches":6140,"leather":6141,"encourage":6142,"##any":6143,"##tha":6144,"neighbourhood":6145,"##iring":6146,"memor":6147,"phrase":6148,"altern":6149,"bible":6150,"cutting":6151,"zeal":6152,"expense":6153,"##esy":6154,"pound":6155,"annoy":6156,"irres":6157,"tobacc":6158,"mos":6159,"shield":6160,"seeking":6161,"saturday":6162,"fortunate":6163,"jumped":6164,"upstairs":6165,"traged":6166,"reduced":6167,"trip":6168,"chimney":6169,"lively":6170,"heels":6171,"##ground":6172,"forever":6173,"million":6174,"polite":6175,"commander":6176,"cha":6177,"begins":6178,"acquired":6179,"ms":6180,"prevented":6181,"##pes":6182,"insult":6183,"gloomy":6184,"provisions":6185,"##ded":6186,"##usions":6187,"experiment":6188,"landing":6189,"##icken":6190,"nigh":6191,"philosopher":6192,"whereas":6193,"reminded":6194,"cities":6195,"musk":6196,"##ober":6197,"##llers":6198,"substance":6199,"gathering":6200,"parad":6201,"##ingham":6202,"structure":6203,"verse":6204,"##arf":6205,"clara":6206,"decide":6207,"noted":6208,"anyway":6209,"commenced":6210,"recent":6211,"anchor":6212,"harr":6213,"jar":6214,"wandered":6215,"bi":6216,"pope":6217,"hundreds":6218,"stuck":6219,"sally":6220,"rules":6221,"laura":6222,"gallop":6223,"pip":6224,"tomm":6225,"##ernal":6226,"##ita":6227,"endure":6228,"##gers":6229,"canv":6230,"worry":6231,"##upon":6232,"phenom":6233,"moonlight":6234,"reaching":6235,"review":6236,"likes":6237,"tales":6238,"prime":6239,"##ili":6240,"applic":6241,"fearful":6242,"##pton":6243,"niece":6244,"passengers":6245,"##vi":6246,"propose":6247,"performed":6248,"violet":6249,"readers":6250,"##burgh":6251,"vii":6252,"closer":6253,"glen":6254,"charity":6255,"jolly":6256,"distinction":6257,"keeps":6258,"cloak":6259,"veget":6260,"32":6261,"reflected":6262,"tap":6263,"agent":6264,"rebell":6265,"intimate":6266,"characteristic":6267,"##usive":6268,"growth":6269,"##work":6270,"##natural":6271,"rival":6272,"arrangements":6273,"##don":6274,"flow":6275,"investig":6276,"ambition":6277,"platform":6278,"emily":6279,"drum":6280,"guards":6281,"scand":6282,"##____":6283,"european":6284,"fund":6285,"##ician":6286,"honourable":6287,"altered":6288,"tobacco":6289,"rent":6290,"##anging":6291,"criticism":6292,".\"--":6293,"##gie":6294,"##akened":6295,"developed":6296,"agony":6297,"colours":6298,"arrive":6299,"fathers":6300,"##ique":6301,"##rily":6302,"attacked":6303,"clergyman":6304,"chall":6305,"penetr":6306,"bund":6307,"anyhow":6308,"selection":6309,"rav":6310,"describe":6311,"guy":6312,"risen":6313,"dashed":6314,"admirable":6315,"pretend":6316,"nove":6317,"respects":6318,"cant":6319,"resting":6320,"##ael":6321,"doubtful":6322,"##alled":6323,"brut":6324,"fitted":6325,"##rid":6326,"liqu":6327,"dumb":6328,"alf":6329,"eaten":6330,"attent":6331,"flut":6332,"devotion":6333,"##law":6334,"##lla":6335,"prize":6336,"##uv":6337,"##gest":6338,"##asper":6339,"glow":6340,"happens":6341,"##mony":6342,"september":6343,"realized":6344,"heed":6345,"nick":6346,"operation":6347,"##gram":6348,"##ifully":6349,"simplicity":6350,"resent":6351,"eighteen":6352,"reluct":6353,"##actory":6354,"blew":6355,"bows":6356,"trifle":6357,"feeble":6358,"unpleasant":6359,"fest":6360,"polly":6361,"threatened":6362,"detect":6363,"beloved":6364,"wilderness":6365,"flashed":6366,"scri":6367,"stirred":6368,"abandoned":6369,"ridiculous":6370,"##ico":6371,"##lets":6372,"holl":6373,"curiously":6374,"morr":6375,"heap":6376,"accounts":6377,"beds":6378,"outward":6379,"daz":6380,"communication":6381,"beck":6382,"belonging":6383,"buildings":6384,"ceremony":6385,"revel":6386,"obeyed":6387,"inspir":6388,"beating":6389,"duck":6390,"priests":6391,"basket":6392,"region":6393,"au":6394,"october":6395,"avail":6396,"bedroom":6397,"independent":6398,"discipl":6399,"##pired":6400,"error":6401,"tiny":6402,"brass":6403,"tommy":6404,"suppress":6405,"##after":6406,"conquer":6407,"##o_":6408,"experienced":6409,"pile":6410,"##otte":6411,"bitterly":6412,"##alf":6413,",[":6414,"troop":6415,"indifferent":6416,"sunset":6417,"gerald":6418,"shakespeare":6419,"prem":6420,"##boy":6421,"##gra":6422,"anton":6423,"isabel":6424,"188":6425,"brings":6426,"_e":6427,"irr":6428,"##pture":6429,"##ax":6430,"passes":6431,"repent":6432,"immort":6433,"##ola":6434,"dona":6435,"betray":6436,"confessed":6437,"victim":6438,"majority":6439,"oil":6440,"remem":6441,"conceive":6442,"settlement":6443,"trot":6444,"product":6445,"fortnight":6446,"batter":6447,"aust":6448,"perman":6449,"apple":6450,"contrad":6451,"scul":6452,"isa":6453,"pover":6454,"tenderness":6455,"##umps":6456,"repeat":6457,"apolog":6458,"stu":6459,"sunk":6460,"bern":6461,"adopted":6462,"shooting":6463,"restless":6464,"scotch":6465,"blessing":6466,"kick":6467,"pluck":6468,"feels":6469,"lust":6470,"poverty":6471,"aged":6472,"africa":6473,"graceful":6474,"establishment":6475,"subd":6476,"conception":6477,"calmly":6478,"##umm":6479,"sadly":6480,"##umin":6481,"scale":6482,"33":6483,"chase":6484,"partner":6485,"hiding":6486,"que":6487,"coal":6488,"corru":6489,"##vest":6490,"doorway":6491,"shirt":6492,"revenge":6493,"created":6494,"security":6495,"jaw":6496,"existed":6497,"elev":6498,"magaz":6499,"clut":6500,"toil":6501,"citizen":6502,"wrought":6503,"centuries":6504,"35":6505,"leon":6506,"studied":6507,"teaching":6508,"intervals":6509,"chances":6510,"wars":6511,"##aign":6512,"muse":6513,"saints":6514,"landsc":6515,"enabled":6516,"providence":6517,"fishing":6518,"rover":6519,"disagree":6520,"##eries":6521,"##smith":6522,"contro":6523,"gas":6524,"anxiously":6525,"oliver":6526,"dub":6527,"wond":6528,"parting":6529,"tradition":6530,"##ensions":6531,"garrison":6532,"##aine":6533,"issue":6534,"cannon":6535,"thread":6536,"yea":6537,"fountain":6538,"enterprise":6539,"##ooked":6540,"genuine":6541,"germ":6542,"shaft":6543,"witch":6544,"##pled":6545,"hans":6546,"##ai":6547,"treach":6548,"supported":6549,"preserved":6550,"##ste":6551,"##inking":6552,"sway":6553,"##lv":6554,"consequently":6555,"fi":6556,"treatment":6557,"motive":6558,"moor":6559,"dorothy":6560,"stroke":6561,"letting":6562,"burnt":6563,"gallery":6564,"washed":6565,"struggling":6566,"dimin":6567,"##ulars":6568,"rejoined":6569,"invitation":6570,"examine":6571,"inferior":6572,"narrative":6573,"catholic":6574,"felix":6575,"latin":6576,"##uously":6577,"##raction":6578,"##place":6579,"bud":6580,"lofty":6581,"kid":6582,"positive":6583,"beth":6584,"merit":6585,"succession":6586,"foul":6587,"##ses":6588,"solic":6589,"fifth":6590,"##icing":6591,"pains":6592,"bred":6593,"betrayed":6594,"legal":6595,"##iour":6596,"disgust":6597,"##urer":6598,"flushed":6599,"feed":6600,"hastings":6601,"vanity":6602,"exchange":6603,"dressing":6604,"##sworth":6605,"viv":6606,"##keeper":6607,"resistance":6608,"lance":6609,"40":6610,"extrem":6611,"continent":6612,"depress":6613,"slain":6614,"##outs":6615,"holds":6616,"diver":6617,"proceedings":6618,"gib":6619,"##umption":6620,"fow":6621,"interior":6622,"enl":6623,"masses":6624,"recommend":6625,"bears":6626,"using":6627,"interfere":6628,"helm":6629,"proposition":6630,"##fortune":6631,"residence":6632,"necessarily":6633,"faded":6634,"lily":6635,"source":6636,"roused":6637,"lantern":6638,"cyn":6639,"sails":6640,"marve":6641,"saxon":6642,"instrument":6643,"deadly":6644,"paying":6645,"##otions":6646,"beer":6647,"twink":6648,"contented":6649,"apply":6650,"repair":6651,"venice":6652,"poets":6653,"irre":6654,"misfortune":6655,"sensation":6656,"stole":6657,"subsequ":6658,"chairs":6659,"jos":6660,"interc":6661,"committee":6662,"tendency":6663,"rachel":6664,"advert":6665,"##gging":6666,"##ails":6667,"weapons":6668,"##mother":6669,"eleg":6670,"climb":6671,"##ata":6672,"dad":6673,"moss":6674,"##pert":6675,"spaniards":6676,"_you":6677,"humor":6678,"community":6679,"##olent":6680,"pockets":6681,"unse":6682,"##elia":6683,"tun":6684,"##angled":6685,"##ffin":6686,"questioned":6687,"##ooner":6688,"retire":6689,"esteem":6690,"tops":6691,"whither":6692,"austri":6693,"climbed":6694,"##irk":6695,"passages":6696,"offence":6697,"capacity":6698,"##vo":6699,"##lyn":6700,"cathed":6701,"multitude":6702,"##ule":6703,"anth":6704,"eggs":6705,"##mo":6706,"measures":6707,"arts":6708,"pp":6709,"ske":6710,"convention":6711,"caution":6712,"alarmed":6713,"lucky":6714,"blows":6715,"##lands":6716,"formerly":6717,"oxford":6718,"regarding":6719,"fastened":6720,"thirst":6721,"patriot":6722,"confer":6723,"venge":6724,"##wing":6725,"completed":6726,"induced":6727,"slavery":6728,"passions":6729,"affectionate":6730,"fatig":6731,"##ucted":6732,"twas":6733,"mould":6734,"visitors":6735,"damp":6736,"load":6737,"portrait":6738,"hospital":6739,"##lance":6740,"cryst":6741,"races":6742,"##racy":6743,"skipper":6744,"jerry":6745,"occasional":6746,"losing":6747,"hesitation":6748,"ald":6749,"##itors":6750,"border":6751,"wearing":6752,"##back":6753,"rein":6754,"\";":6755,"##ipe":6756,"depos":6757,"##gent":6758,"signed":6759,"##uming":6760,"##alog":6761,"prodig":6762,"herm":6763,"subtle":6764,"congrat":6765,"phot":6766,"attach":6767,"receiving":6768,"problem":6769,"scru":6770,"##agon":6771,"reported":6772,"plays":6773,"horizon":6774,"minor":6775,"distinguish":6776,"fant":6777,"bone":6778,"manuf":6779,"50":6780,"sem":6781,"encl":6782,"neighbours":6783,"powder":6784,"err":6785,"ful":6786,"rushing":6787,"driver":6788,"captured":6789,"easier":6790,"fertil":6791,"ecc":6792,"##borough":6793,"##aid":6794,"cree":6795,"dwelling":6796,"average":6797,"behalf":6798,"advancing":6799,"wret":6800,"scarlet":6801,"lege":6802,"complaint":6803,".'\"":6804,"bench":6805,"bargain":6806,"johnny":6807,"writes":6808,"##itively":6809,"##ems":6810,"shouting":6811,"seventy":6812,"veil":6813,"division":6814,"##**":6815,"haul":6816,"permission":6817,"patter":6818,"nerves":6819,"##inson":6820,"awe":6821,"##ero":6822,"overcome":6823,"balance":6824,"murmur":6825,"intelligent":6826,"restored":6827,"##oying":6828,"string":6829,"inquiries":6830,"warned":6831,"instructions":6832,"secured":6833,"shepher":6834,"actions":6835,"fashioned":6836,"chapel":6837,"persec":6838,"persuaded":6839,"assembled":6840,"##mpt":6841,"joan":6842,"conceived":6843,"kin":6844,"bloss":6845,"arn":6846,"monstr":6847,"penny":6848,"cease":6849,"britain":6850,"passionate":6851,"celebrated":6852,"entit":6853,"uneasy":6854,"confined":6855,"##shire":6856,"curt":6857,"hart":6858,"norman":6859,"thorn":6860,"indifference":6861,"upright":6862,"offering":6863,"liberal":6864,"pruss":6865,"##itty":6866,"geoff":6867,"impressed":6868,"stopping":6869,"footsteps":6870,"weapon":6871,"tragedy":6872,"##aved":6873,"elements":6874,"shaw":6875,"##anda":6876,"wages":6877,"shru":6878,"dreamed":6879,"adj":6880,"tig":6881,"november":6882,"##aging":6883,"enable":6884,"fortunately":6885,"twil":6886,"overl":6887,"dougl":6888,"rescue":6889,"sofa":6890,"deeds":6891,"bind":6892,"preparations":6893,"waved":6894,"doubts":6895,"solitude":6896,"##inations":6897,"including":6898,"##oa":6899,"preferred":6900,"maria":6901,"millions":6902,"##irts":6903,"##org":6904,"appet":6905,"stolen":6906,"twilight":6907,"referred":6908,"puff":6909,"##itality":6910,"##oubted":6911,"wrapped":6912,"##pers":6913,"decent":6914,"pressure":6915,"feb":6916,"glancing":6917,"glimpse":6918,"sits":6919,"acknowledged":6920,"##hin":6921,"irreg":6922,"breathing":6923,"34":6924,"pole":6925,"resour":6926,"##isl":6927,"spear":6928,"map":6929,"practically":6930,"thet":6931,"##eling":6932,"depends":6933,"section":6934,"demonstr":6935,"dine":6936,"##anqu":6937,"push":6938,"susan":6939,"learnt":6940,"landscape":6941,"ink":6942,"containing":6943,"manufact":6944,"revealed":6945,"##enched":6946,"income":6947,"wilt":6948,"counted":6949,"followers":6950,"hideous":6951,"horrid":6952,"guessed":6953,"trembled":6954,"funny":6955,"admired":6956,"introduction":6957,"butt":6958,"interval":6959,"mun":6960,"antiqu":6961,"groups":6962,"righteousness":6963,"display":6964,"##gage":6965,"obedience":6966,"gross":6967,"tarzan":6968,"gorge":6969,"##cle":6970,"rhy":6971,"laun":6972,"compliment":6973,"walks":6974,"limited":6975,"##irmed":6976,"ster":6977,"handle":6978,"traveller":6979,"impatient":6980,"##whel":6981,"schools":6982,"saving":6983,"##ineas":6984,"recognised":6985,"responsibility":6986,"artific":6987,"admire":6988,"faintly":6989,"campaign":6990,"dy":6991,"rasc":6992,"##apes":6993,"guilt":6994,"##ropri":6995,"standard":6996,"trunk":6997,"performance":6998,"##row":6999,"##iner":7000,"comparison":7001,"candid":7002,"##coat":7003,"brute":7004,"conducted":7005,"virtues":7006,"myth":7007,"##vous":7008,"natured":7009,"symb":7010,"swar":7011,"vengeance":7012,"viii":7013,"sne":7014,"##ocracy":7015,"ratt":7016,"cares":7017,"mostly":7018,"glasses":7019,"##arn":7020,"hearty":7021,"claims":7022,"neglect":7023,"##vag":7024,"abandon":7025,"prol":7026,"##rington":7027,"thoughtful":7028,"mourn":7029,"disease":7030,"brisk":7031,"subl":7032,"orch":7033,"confession":7034,"##ques":7035,"##eenth":7036,"contract":7037,"overwhel":7038,"puts":7039,"reverence":7040,"angels":7041,"floating":7042,"undoubted":7043,"painting":7044,"awakened":7045,"invis":7046,"herbert":7047,"comparatively":7048,"wherefore":7049,"hasn":7050,"##ints":7051,"attracted":7052,"appla":7053,"monk":7054,"##berg":7055,"motionless":7056,"##aments":7057,"tramp":7058,"coarse":7059,"sailing":7060,"extravag":7061,"ni":7062,"gospel":7063,"vice":7064,"root":7065,"exagger":7066,"christians":7067,"##anim":7068,"goss":7069,"lik":7070,"fitz":7071,"happily":7072,"halted":7073,"norm":7074,"schooner":7075,"discourse":7076,"tables":7077,"honey":7078,"##iana":7079,"employment":7080,"irregular":7081,"divers":7082,"drowned":7083,"net":7084,"##ements":7085,"travellers":7086,"bart":7087,"pretended":7088,"shaken":7089,"retorted":7090,"ade":7091,"bells":7092,"lincol":7093,"palm":7094,"sweep":7095,"rabbit":7096,"proposal":7097,"rivers":7098,"inquire":7099,"lincoln":7100,"##oard":7101,"shri":7102,"'--":7103,"geoffrey":7104,"teacher":7105,"stro":7106,"cape":7107,"lem":7108,"##urst":7109,"##lock":7110,"painter":7111,"plunged":7112,"##inburgh":7113,"respond":7114,"tie":7115,"dean":7116,"trap":7117,"gifts":7118,"distrib":7119,"pressing":7120,"inward":7121,"commons":7122,"hush":7123,"##esis":7124,"##elly":7125,"ton":7126,"compare":7127,"##inter":7128,"michael":7129,"##ym":7130,"denied":7131,"lightning":7132,"proceeding":7133,"murdered":7134,"##rated":7135,"##olas":7136,"raw":7137,"monday":7138,"princes":7139,"advantages":7140,"mob":7141,"positively":7142,"##oir":7143,"carol":7144,"prey":7145,"assurance":7146,"refresh":7147,"##uity":7148,"mason":7149,"##iency":7150,"sale":7151,"opposed":7152,"rash":7153,"##e_":7154,"travelled":7155,",)":7156,"quit":7157,"frown":7158,"##raced":7159,"perfection":7160,"cards":7161,"neglected":7162,"ponder":7163,"belt":7164,"##izes":7165,"charlie":7166,"justified":7167,"boldly":7168,"violently":7169,"##ensible":7170,"picturesque":7171,"slee":7172,"thief":7173,"warriors":7174,"##ua":7175,"survey":7176,"eustace":7177,"seats":7178,"larry":7179,"gladstone":7180,"nic":7181,"_you_":7182,"magistr":7183,"ornament":7184,"supplied":7185,"douglas":7186,"legisl":7187,"##anks":7188,"channel":7189,"furious":7190,"convenient":7191,"generations":7192,"shrew":7193,"dict":7194,"##ago":7195,"torment":7196,"sugar":7197,"clad":7198,"##oiselle":7199,"##arian":7200,"eldest":7201,"##bell":7202,"increasing":7203,"univer":7204,"cathedral":7205,"eleph":7206,"##ilda":7207,"bough":7208,"##frey":7209,"umb":7210,"##quet":7211,"dwelt":7212,"tram":7213,"##iah":7214,"prepare":7215,"_v":7216,"blown":7217,"daring":7218,"##itious":7219,"instances":7220,"seconds":7221,"fence":7222,"##ulations":7223,"lawn":7224,"repose":7225,"americans":7226,"thankful":7227,"100":7228,"universe":7229,"disord":7230,"resign":7231,"founded":7232,"189":7233,"jeff":7234,"pronounced":7235,"wont":7236,"chill":7237,"accompany":7238,"##master":7239,"##ona":7240,"hoarse":7241,"constru":7242,"yourselves":7243,"warmth":7244,"goth":7245,"##burn":7246,"whir":7247,"holiday":7248,"apost":7249,"incap":7250,"summit":7251,"enjoyment":7252,"ave":7253,"fragments":7254,"resolute":7255,"##yard":7256,"testim":7257,"tub":7258,"##rian":7259,"believing":7260,"personally":7261,"##essie":7262,"cotton":7263,"trim":7264,"writers":7265,"yielded":7266,"checked":7267,"hatred":7268,"summoned":7269,"henri":7270,"satisfy":7271,"ridge":7272,"villages":7273,"torr":7274,"relative":7275,"stagg":7276,"maintained":7277,"##icient":7278,"reserve":7279,"##asion":7280,"collection":7281,"doubted":7282,"degr":7283,"gleam":7284,"folded":7285,"lip":7286,"motives":7287,"##itan":7288,"arrested":7289,"swords":7290,"shill":7291,"cash":7292,"##itudes":7293,"slender":7294,"cos":7295,"##rice":7296,"disagreeable":7297,"ministers":7298,"wheels":7299,"indicated":7300,"sevent":7301,"##arts":7302,"bother":7303,"recollection":7304,"raven":7305,"stores":7306,"##rael":7307,"breed":7308,"wagon":7309,"unjust":7310,"songs":7311,"canvas":7312,"mack":7313,"vest":7314,"##ino":7315,"particulars":7316,"garments":7317,"induce":7318,"tribes":7319,"##...":7320,"attempts":7321,"critical":7322,"von":7323,"##olution":7324,"medicine":7325,"##jah":7326,"supposing":7327,"feathers":7328,"gasped":7329,"##forth":7330,"entitled":7331,"##sell":7332,"sullen":7333,"limit":7334,"ranks":7335,"wasted":7336,"ost":7337,"edinburgh":7338,"##ipt":7339,"expecting":7340,"verses":7341,"hunger":7342,"maud":7343,"existing":7344,"foundation":7345,"##gel":7346,"occupation":7347,"responsible":7348,"bapt":7349,"blast":7350,"##pson":7351,"trades":7352,"depths":7353,"##allel":7354,"varieties":7355,"parson":7356,"emin":7357,"individuals":7358,"jam":7359,"lass":7360,"dropping":7361,"pilgrim":7362,"butler":7363,"##rage":7364,"owned":7365,"dishon":7366,"bars":7367,"##aves":7368,"preparing":7369,"climate":7370,"ruins":7371,"uncommon":7372,"railroad":7373,"mail":7374,"invisible":7375,"ench":7376,"bonnet":7377,"brood":7378,"##atherine":7379,"altar":7380,"36":7381,"##aced":7382,"thoughtfully":7383,"rod":7384,"crou":7385,"bloody":7386,"holes":7387,"##case":7388,"##ider":7389,"##eur":7390,"mex":7391,"jews":7392,"wink":7393,"seeds":7394,"submit":7395,"staying":7396,"student":7397,"discipline":7398,"roses":7399,"commonly":7400,"correspondence":7401,"##oft":7402,"ladder":7403,"educated":7404,"bald":7405,"steal":7406,"incons":7407,"remorse":7408,"defer":7409,"aboard":7410,"##omach":7411,"uncomfort":7412,"promptly":7413,"newspapers":7414,"chamb":7415,"gamb":7416,"grain":7417,"##anny":7418,"##emoiselle":7419,"childhood":7420,"authors":7421,"total":7422,"connect":7423,"##din":7424,"spared":7425,"procession":7426,"dame":7427,"##leton":7428,"emotions":7429,"dat":7430,"tempted":7431,"columb":7432,"deserve":7433,"##asy":7434,"clam":7435,"december":7436,"illness":7437,"bond":7438,"indust":7439,"##icial":7440,"convent":7441,"percy":7442,"solemnly":7443,"##angle":7444,"appropri":7445,"trained":7446,"imperfect":7447,"changing":7448,"mademoiselle":7449,"reckless":7450,"upward":7451,"fortunes":7452,"russian":7453,"penn":7454,"axe":7455,"lun":7456,"persuade":7457,"##ias":7458,"unfortunately":7459,"##graph":7460,"robin":7461,"madness":7462,"sinking":7463,"fost":7464,"whip":7465,"disple":7466,"belongs":7467,"cu":7468,"jung":7469,"amazement":7470,"##ea":7471,"##ops":7472,"##ulating":7473,"sixteen":7474,"ps":7475,"compr":7476,"desires":7477,"ka":7478,"vale":7479,"##urred":7480,"##illery":7481,"harbour":7482,"siege":7483,"steward":7484,"persist":7485,"lessons":7486,"differences":7487,"##uish":7488,"fourteen":7489,"##gings":7490,"blowing":7491,"longing":7492,"speaker":7493,"injury":7494,"ya":7495,"leads":7496,"selected":7497,"collar":7498,"ix":7499,"finest":7500,"##apsed":7501,"##icted":7502,"conj":7503,"behav":7504,"##igs":7505,"charley":7506,"injured":7507,"##enny":7508,"eag":7509,"stomach":7510,"historical":7511,"presents":7512,"naught":7513,"struggled":7514,"training":7515,"##uke":7516,"churches":7517,"assume":7518,"peasant":7519,"deceived":7520,"drops":7521,"button":7522,"provin":7523,"remembr":7524,"warrant":7525,"arrest":7526,"temptation":7527,"authorities":7528,"impart":7529,"matt":7530,"##mund":7531,"lud":7532,"entertained":7533,"kh":7534,"stately":7535,"visits":7536,"operations":7537,"missing":7538,"awoke":7539,"spectacle":7540,"prel":7541,"methods":7542,"intercourse":7543,"photograph":7544,"##rog":7545,"##ibilities":7546,"reception":7547,"peaceful":7548,"answers":7549,"kent":7550,"dislike":7551,"descent":7552,"johnson":7553,"willingly":7554,"invent":7555,"issued":7556,"determination":7557,"pulling":7558,"##umble":7559,"china":7560,"frankly":7561,"##hib":7562,"tumult":7563,"clust":7564,"territ":7565,"attain":7566,"romans":7567,"satisfactory":7568,"crest":7569,"throng":7570,"##necess":7571,"electric":7572,"ladyship":7573,"corners":7574,"privilege":7575,"alexander":7576,"wip":7577,"everyone":7578,"displayed":7579,"dash":7580,"fiercely":7581,"monstrous":7582,"jealousy":7583,"january":7584,"paradise":7585,"mol":7586,"tranqu":7587,"arrow":7588,"conspir":7589,"breth":7590,"backs":7591,"##yl":7592,"respecting":7593,"university":7594,"crimson":7595,"kit":7596,"brethren":7597,"presume":7598,"lif":7599,"disappear":7600,"##encies":7601,"##cia":7602,"marvel":7603,"openly":7604,"inevitable":7605,"fools":7606,"##orus":7607,"foe":7608,"recently":7609,"damn":7610,"cure":7611,"offices":7612,"##olence":7613,"intens":7614,"waving":7615,"##aneous":7616,"borr":7617,"##cribed":7618,"acknowledge":7619,"lodge":7620,"lend":7621,"hastened":7622,"els":7623,"involved":7624,"stretch":7625,"formal":7626,"##vy":7627,"theirs":7628,"election":7629,"oz":7630,"rarely":7631,"haunted":7632,"activity":7633,"abbey":7634,"boot":7635,"surprising":7636,"rocky":7637,"##rs":7638,"##dles":7639,"shaped":7640,"ape":7641,"prair":7642,"luke":7643,"'\"":7644,"##riages":7645,"amusing":7646,"##era":7647,"##ez":7648,"colored":7649,"quaint":7650,"leaders":7651,"burg":7652,"venet":7653,"ashes":7654,"telegraph":7655,"flora":7656,"##stead":7657,"##ourt":7658,"inherit":7659,"clung":7660,"gravity":7661,"impatience":7662,"rigid":7663,"purchase":7664,"inspired":7665,"perplex":7666,"pave":7667,"##uting":7668,"recalled":7669,"shif":7670,"bullet":7671,"parlour":7672,"pere":7673,"professional":7674,"unworth":7675,"homes":7676,"nod":7677,"answering":7678,"scottish":7679,"virginia":7680,"assault":7681,"napole":7682,"frog":7683,"absorbed":7684,"loaded":7685,"consisted":7686,"xxv":7687,"lovers":7688,"grows":7689,"nobles":7690,"##iated":7691,"graham":7692,"previously":7693,"ita":7694,"stable":7695,"imperial":7696,"unnecess":7697,"pony":7698,"backward":7699,"mutual":7700,"##ration":7701,"louise":7702,"cruelty":7703,"aye":7704,"shillings":7705,"ferv":7706,"mak":7707,"##eration":7708,"velve":7709,"##gle":7710,"depri":7711,"obscure":7712,",--\"":7713,"deserved":7714,"37":7715,"trous":7716,"marie":7717,"villain":7718,"##dale":7719,"retain":7720,"dangers":7721,"certainty":7722,"arise":7723,"access":7724,"realize":7725,"catching":7726,"temp":7727,"elbow":7728,"janet":7729,"tack":7730,"maggie":7731,"fug":7732,"##ruary":7733,"_j":7734,"saith":7735,"##ulp":7736,"alm":7737,"oars":7738,"##wart":7739,"chanced":7740,"cabinet":7741,"killing":7742,"cliffs":7743,"salvation":7744,"defeat":7745,"cic":7746,"julia":7747,"assembly":7748,"prolong":7749,"##sters":7750,"##athan":7751,"pleasures":7752,"rightly":7753,"complain":7754,"christianity":7755,"combat":7756,"inval":7757,"bewildered":7758,"ding":7759,"wholes":7760,"prophet":7761,"sentiments":7762,"##etta":7763,"si":7764,"studies":7765,"nicholas":7766,"meek":7767,"closing":7768,"bills":7769,"healthy":7770,"cheerfully":7771,"##lo":7772,"##aping":7773,"mansion":7774,"sul":7775,"superf":7776,"portug":7777,"hearth":7778,"lowered":7779,"arguments":7780,"guardian":7781,"##break":7782,"condemned":7783,"shores":7784,"medical":7785,"##enote":7786,"lasted":7787,"originally":7788,"sidenote":7789,"swore":7790,"phoe":7791,"##igate":7792,"judged":7793,"policeman":7794,"brains":7795,"endless":7796,"_i_":7797,"capture":7798,"waiter":7799,"weeping":7800,"observing":7801,"##eline":7802,"model":7803,"accum":7804,"remove":7805,"vicar":7806,"morris":7807,"dora":7808,"mustn":7809,"het":7810,"thereby":7811,"included":7812,"gladly":7813,"strictly":7814,"searching":7815,"plains":7816,"manager":7817,"##olph":7818,"draught":7819,"department":7820,"dew":7821,"##ieu":7822,"needn":7823,"conquered":7824,"##ean":7825,"olive":7826,"spin":7827,"aught":7828,"seal":7829,"advised":7830,"_he":7831,"##verse":7832,"bron":7833,"highness":7834,"38":7835,"_g":7836,"##enz":7837,"downstairs":7838,"sack":7839,"plunder":7840,"##hile":7841,"##ocratic":7842,"roots":7843,"sketch":7844,"ela":7845,"specially":7846,"ranch":7847,"halt":7848,"tidings":7849,"perch":7850,"propriet":7851,"tore":7852,"volumes":7853,"seize":7854,"##retion":7855,"boxes":7856,"wilson":7857,"fog":7858,"team":7859,"dreary":7860,"prosperity":7861,"deaf":7862,"heb":7863,"flames":7864,"erect":7865,"statue":7866,"39":7867,"caps":7868,"considerably":7869,"##amy":7870,"poly":7871,"hardy":7872,"keeper":7873,"jewels":7874,"contact":7875,"copper":7876,"eb":7877,"contrived":7878,"vine":7879,"courtesy":7880,"##force":7881,"aren":7882,"linen":7883,"conspic":7884,"scant":7885,"forming":7886,"limits":7887,"chambers":7888,"declar":7889,"declined":7890,"energ":7891,"##nut":7892,"##ishes":7893,"skull":7894,"##hand":7895,"heroic":7896,"cove":7897,"##iano":7898,"ninet":7899,"encouraged":7900,"##emy":7901,"##ounted":7902,"peas":7903,"afforded":7904,"brandy":7905,"architecture":7906,"##ustral":7907,"youthful":7908,"elabor":7909,"mc":7910,"atl":7911,"bitterness":7912,"vote":7913,"##oration":7914,"betty":7915,"patch":7916,"##icious":7917,"flies":7918,"discont":7919,"alfred":7920,"resemblance":7921,"##enses":7922,"prett":7923,"##eon":7924,"females":7925,"dried":7926,"##istry":7927,"sanct":7928,"armour":7929,"discern":7930,"##wr":7931,"woo":7932,"lew":7933,"hoping":7934,"conflict":7935,"application":7936,"austral":7937,"bea":7938,"amiable":7939,"innocence":7940,"rises":7941,"wishing":7942,"errand":7943,"israel":7944,"greg":7945,"blush":7946,"advise":7947,"vigorous":7948,"carpet":7949,"45":7950,"peep":7951,"unwilling":7952,"##berry":7953,"suitable":7954,"civilization":7955,"##lings":7956,"liver":7957,"woe":7958,"intol":7959,"shalt":7960,"cris":7961,"awhile":7962,"funeral":7963,"neighborhood":7964,"##arded":7965,"clasped":7966,"verd":7967,"##utor":7968,"undoubtedly":7969,"derived":7970,"rus":7971,"sermon":7972,"hasty":7973,"##ban":7974,"discussed":7975,"perpetual":7976,"renewed":7977,"largely":7978,"accused":7979,"##licted":7980,"wheat":7981,"purse":7982,"infinitely":7983,"encounter":7984,"pic":7985,"flatter":7986,"ez":7987,"trag":7988,"humb":7989,"alan":7990,"estim":7991,"avenue":7992,"offended":7993,"friday":7994,"ragged":7995,"likeness":7996,"##oting":7997,"composition":7998,"readiness":7999,"plac":8000,"##bear":8001,"prevail":8002,"##ands":8003,"plum":8004,"##mod":8005,"wan":8006,"##esar":8007,"terrace":8008,"memories":8009,"marvell":8010,"wounds":8011,"wildly":8012,"eighty":8013,"addressing":8014,"february":8015,"parallel":8016,"lect":8017,"##teenth":8018,"prayed":8019,"manus":8020,"sunlight":8021,"lowest":8022,"_not":8023,"gab":8024,"chiefs":8025,"##mouth":8026,"suited":8027,"dispute":8028,"timber":8029,"endeavoured":8030,"withdrew":8031,"owen":8032,"transfer":8033,"moan":8034,"congress":8035,"envy":8036,"disguise":8037,"wad":8038,"chival":8039,"jacket":8040,"creation":8041,"##nel":8042,"##aux":8043,"earthly":8044,"##tes":8045,"chat":8046,"dost":8047,"snap":8048,"##inge":8049,"##ga":8050,"pear":8051,"pend":8052,"whistle":8053,"pattern":8054,"preserve":8055,"protestant":8056,"mou":8057,"affections":8058,"pierre":8059,"remonstr":8060,"childish":8061,"hann":8062,"severely":8063,"magazine":8064,"wol":8065,"arrows":8066,"upwards":8067,"upset":8068,"judges":8069,"##uated":8070,"exult":8071,"crushed":8072,"lecture":8073,"indisp":8074,"extern":8075,"appetite":8076,"shepherd":8077,"snake":8078,"##gon":8079,"temporary":8080,"dined":8081,"consented":8082,"inconven":8083,"prevailed":8084,"wer":8085,"loudly":8086,"cultivated":8087,"bend":8088,"sets":8089,"fertilised":8090,"gasp":8091,"##ighted":8092,"thanked":8093,"industry":8094,"nowhere":8095,"roared":8096,"accommod":8097,"sticks":8098,"brad":8099,"slumber":8100,"compassion":8101,"thresh":8102,"blunt":8103,"firing":8104,"province":8105,"secrets":8106,"intentions":8107,"indic":8108,"spoil":8109,"pious":8110,"creek":8111,"idol":8112,"warrior":8113,"##car":8114,"obviously":8115,"##yll":8116,"indef":8117,"danced":8118,"faults":8119,"fiery":8120,"omn":8121,"bee":8122,"artillery":8123,"##alem":8124,"##tin":8125,"adorn":8126,"notions":8127,"speedily":8128,"improved":8129,"complexion":8130,"uncomfortable":8131,"theod":8132,"stare":8133,"smallest":8134,"imprison":8135,"shells":8136,"napoleon":8137,"##bel":8138,"innum":8139,"pursue":8140,"spy":8141,"sorr":8142,"fitting":8143,"rela":8144,"announce":8145,"tip":8146,"baggage":8147,"stirring":8148,"behaved":8149,"##ictions":8150,"regions":8151,"monot":8152,"fascin":8153,"eyebr":8154,";'":8155,"surrounding":8156,"materials":8157,"jungle":8158,"manuscript":8159,"cecil":8160,"impatiently":8161,"englishmen":8162,"glittering":8163,"appointment":8164,"bundle":8165,"escort":8166,"breathed":8167,"cough":8168,"yach":8169,"recognize":8170,"towers":8171,"hood":8172,"stim":8173,"terribly":8174,"cens":8175,"##okes":8176,"streams":8177,"innumerable":8178,"##oons":8179,"##vant":8180,"treaty":8181,"thumb":8182,"wonderfully":8183,"lodgings":8184,"##rate":8185,"commence":8186,"gossip":8187,"loos":8188,"shan":8189,"advoc":8190,"testimony":8191,"##ctive":8192,"planted":8193,"tomorrow":8194,"frozen":8195,"greeted":8196,"gord":8197,"deemed":8198,"desirable":8199,"leonard":8200,"breach":8201,"seeming":8202,"edgar":8203,"##laced":8204,"martyr":8205,"hired":8206,"##oral":8207,"contempor":8208,"infantry":8209,"bending":8210,"sickness":8211,"lent":8212,"wherein":8213,"elderly":8214,"shrewd":8215,"haught":8216,"wiser":8217,"lament":8218,"##illes":8219,"formid":8220,"couch":8221,"criminal":8222,"##unte":8223,"shouts":8224,"cyr":8225,"miller":8226,"##isle":8227,"marm":8228,"avo":8229,"rapt":8230,"nell":8231,"harder":8232,"dale":8233,"whale":8234,"brows":8235,"fiction":8236,"longed":8237,"courts":8238,"management":8239,"wordsworth":8240,"mend":8241,"mant":8242,"conject":8243,"##ifications":8244,"wept":8245,"production":8246,"scandal":8247,"males":8248,"sensitive":8249,"sooth":8250,"packed":8251,"##inine":8252,"lifting":8253,"corps":8254,"##itute":8255,"##combe":8256,"pag":8257,"dollar":8258,"nom":8259,"##dled":8260,"##orter":8261,"favourable":8262,"perish":8263,"uncon":8264,"deliberately":8265,"beggar":8266,"volunte":8267,"scent":8268,"link":8269,"remo":8270,"ample":8271,"##icable":8272,"guarded":8273,"perf":8274,"alongside":8275,"##xx":8276,"##ustrious":8277,"reports":8278,"glowing":8279,"concent":8280,"archie":8281,"armies":8282,"dismissed":8283,"sheer":8284,"---":8285,"worsh":8286,"administr":8287,"varied":8288,"##ida":8289,"emphas":8290,"sternly":8291,"corpor":8292,"recognition":8293,"discl":8294,"delicious":8295,"gill":8296,"metal":8297,"luxury":8298,"##assad":8299,"##roll":8300,"awfully":8301,"rot":8302,"crash":8303,"countrymen":8304,"fruits":8305,"trousers":8306,"marian":8307,"stricken":8308,"##asting":8309,"##nie":8310,"precaut":8311,"##ini":8312,"surgeon":8313,"grove":8314,"fern":8315,"adding":8316,"##nest":8317,"promises":8318,"ambit":8319,"##arks":8320,"manly":8321,"witnesses":8322,"amazed":8323,"##foot":8324,"##ica":8325,"holmes":8326,"imagin":8327,"##usalem":8328,"drama":8329,"apprehension":8330,"avoided":8331,"vary":8332,"dismay":8333,"lots":8334,"regards":8335,"hunters":8336,"steven":8337,"hem":8338,"formidable":8339,"barbara":8340,"41":8341,"hull":8342,"hypoth":8343,"improvement":8344,"hoof":8345,"sant":8346,"earliest":8347,"undertake":8348,"traff":8349,"remembrance":8350,"jury":8351,"unworthy":8352,"simpl":8353,"robbed":8354,"dod":8355,"ginger":8356,"pour":8357,"##aur":8358,"unpr":8359,"drunken":8360,"monster":8361,"wretch":8362,"##iate":8363,"winding":8364,"esmond":8365,"##uk":8366,"nois":8367,"costume":8368,"woke":8369,"protested":8370,"dickens":8371,"someone":8372,"conveyed":8373,"endeavour":8374,"arnold":8375,"tossed":8376,"##urious":8377,"slay":8378,"corrid":8379,"gla":8380,"roaring":8381,"embrace":8382,"##rane":8383,"remembering":8384,"desolate":8385,"threshold":8386,"suspicious":8387,"hatch":8388,"encamp":8389,"seaman":8390,"echoed":8391,"shudd":8392,"probability":8393,"phenomena":8394,"xi":8395,"miracle":8396,"bour":8397,"chronic":8398,"permanent":8399,"provision":8400,"injust":8401,"telegram":8402,"twisted":8403,"shocked":8404,"crisis":8405,"measured":8406,"agitation":8407,"jerusalem":8408,"##pence":8409,"smiles":8410,"literally":8411,"ec":8412,"##erick":8413,"interpre":8414,"transport":8415,"allan":8416,"happier":8417,"##ais":8418,"talent":8419,"phoebe":8420,"outline":8421,"irresist":8422,"##kers":8423,"##thew":8424,"terr":8425,"##entially":8426,"purely":8427,"additional":8428,"delicacy":8429,"briefly":8430,"dazz":8431,"wig":8432,"isle":8433,"reserved":8434,"coldly":8435,"justly":8436,"rous":8437,"orange":8438,"secretly":8439,"cautiously":8440,"favorite":8441,"immortal":8442,"lodging":8443,"grasped":8444,"angrily":8445,"mirror":8446,"indignant":8447,"43":8448,"##bra":8449,"justify":8450,"gilbert":8451,"haired":8452,"commercial":8453,"grandmother":8454,"anna":8455,"faster":8456,"lyd":8457,"##lying":8458,"mothers":8459,"merits":8460,"travers":8461,"returns":8462,"##ixture":8463,"facing":8464,"dilig":8465,"expectation":8466,"slau":8467,"subdued":8468,"clearing":8469,"surm":8470,"heroes":8471,"droop":8472,"traitor":8473,"##soever":8474,"newly":8475,"';":8476,"##stein":8477,"covering":8478,"thereof":8479,"unacc":8480,"heathen":8481,"##iations":8482,"ancestors":8483,"creep":8484,"joint":8485,"edith":8486,"dispos":8487,"stillness":8488,"helping":8489,"highland":8490,"sel":8491,"commands":8492,"capit":8493,"velvet":8494,"gy":8495,"##ouch":8496,"congreg":8497,"hospitality":8498,"dense":8499,"thie":8500,"asks":8501,"breathe":8502,"miriam":8503,"sexes":8504,"primitive":8505,"porch":8506,"communic":8507,"independence":8508,"jackson":8509,"psy":8510,"##ulus":8511,"beautifully":8512,"##ethe":8513,"foster":8514,"gulf":8515,"unnecessary":8516,"customs":8517,"bits":8518,"impressions":8519,"preparation":8520,"incapable":8521,"##ainder":8522,"substant":8523,"##ria":8524,"withdraw":8525,"dismal":8526,"amidst":8527,"wits":8528,"clothing":8529,"shallow":8530,"introduce":8531,"consolation":8532,"dirt":8533,"filling":8534,"##alm":8535,"plough":8536,"curtains":8537,"rans":8538,"hereafter":8539,"assisted":8540,"assuredly":8541,"scenery":8542,"##ggy":8543,"caesar":8544,"wist":8545,"condemn":8546,"tam":8547,"blaze":8548,"floated":8549,"##cile":8550,"frightful":8551,"lamps":8552,"angle":8553,"##inery":8554,"damned":8555,"association":8556,"calculated":8557,"greatness":8558,"acad":8559,"##ithe":8560,"ability":8561,"destiny":8562,"pavement":8563,"cub":8564,"tune":8565,"rebellion":8566,"quarre":8567,"chau":8568,"ellen":8569,"vag":8570,"##lain":8571,"mall":8572,"hey":8573,"alle":8574,"veins":8575,"demands":8576,"injustice":8577,"##assed":8578,"horns":8579,"##ersed":8580,"outs":8581,"forests":8582,"##yan":8583,"frontier":8584,"tavern":8585,"analy":8586,"attractive":8587,"confirmed":8588,"decay":8589,"feature":8590,"wax":8591,"##maid":8592,"choos":8593,"chem":8594,"moderate":8595,"prior":8596,"pines":8597,"##vial":8598,"shriek":8599,"eyebrows":8600,"stew":8601,"respected":8602,"provide":8603,"despite":8604,"galley":8605,"eagerness":8606,"han":8607,"hedge":8608,"vaguely":8609,"thrill":8610,"accus":8611,"legend":8612,"##ping":8613,"vex":8614,"crazy":8615,"fors":8616,"transm":8617,"##court":8618,"shops":8619,"cambridge":8620,"pond":8621,"honestly":8622,"relieve":8623,"##icent":8624,"hurriedly":8625,"eg":8626,"cargo":8627,"assented":8628,"pom":8629,"hare":8630,"loun":8631,"remainder":8632,"_sh":8633,"dow":8634,"##atisf":8635,"flush":8636,"commod":8637,"convuls":8638,"cursed":8639,"overhead":8640,"spee":8641,"tact":8642,"shrill":8643,"columns":8644,"ced":8645,"bru":8646,"restraint":8647,"bernard":8648,"hounds":8649,"enlar":8650,"termin":8651,"rupert":8652,"##itations":8653,"haunt":8654,"heavenly":8655,"physician":8656,"##dened":8657,"foam":8658,"flee":8659,"##----------------":8660,"staircase":8661,"pleasing":8662,"whirl":8663,"colony":8664,"strongest":8665,"condes":8666,"bidding":8667,"42":8668,"mainly":8669,"exclamation":8670,"##keys":8671,"speeches":8672,"regularly":8673,"expressions":8674,"##wich":8675,"sheets":8676,"representative":8677,"brib":8678,"document":8679,"##ridge":8680,"charlotte":8681,"youa":8682,"aroused":8683,"bast":8684,"##ado":8685,"felic":8686,"obli":8687,"##ference":8688,"worldly":8689,"frenchman":8690,"francisco":8691,"##us_":8692,"##lie":8693,"select":8694,"satan":8695,"slipp":8696,"##anche":8697,"meadow":8698,"suspicions":8699,"musical":8700,"institution":8701,"gust":8702,"practised":8703,"contains":8704,"constable":8705,"breadth":8706,"phant":8707,"clothed":8708,"fist":8709,"pump":8710,"##inement":8711,"ghosts":8712,"prairie":8713,"##ients":8714,"placing":8715,"momentary":8716,"marrying":8717,"forem":8718,"incom":8719,"##gence":8720,"conclude":8721,"artificial":8722,"ringing":8723,"dramatic":8724,"bestowed":8725,"dealt":8726,"moses":8727,"##dling":8728,"##atically":8729,"punish":8730,"scream":8731,"backed":8732,"retained":8733,"cigarette":8734,"observations":8735,"meadows":8736,"xii":8737,"responded":8738,"shine":8739,"impuls":8740,"grip":8741,"nerve":8742,"hats":8743,"vacant":8744,"rings":8745,"buffal":8746,"eagle":8747,"elegant":8748,"dreaming":8749,"hanged":8750,"wiz":8751,"fn":8752,"sandy":8753,"marching":8754,"##utable":8755,"##ila":8756,"##udge":8757,"scare":8758,"bodily":8759,"##ba":8760,"lind":8761,"trop":8762,"voc":8763,"vigil":8764,"nig":8765,"##estion":8766,"##ography":8767,"sentimental":8768,"##atha":8769,"breathless":8770,"corrupt":8771,"discom":8772,"##castle":8773,"gothic":8774,"unnatural":8775,"dares":8776,"pillow":8777,"##?\"":8778,"pleasantly":8779,"decidedly":8780,"lingered":8781,"whoever":8782,"effected":8783,"achieve":8784,"conserv":8785,"posts":8786,"ceremon":8787,"warmly":8788,"##dal":8789,"contest":8790,"adopt":8791,"occupy":8792,"stove":8793,"afore":8794,"##icks":8795,"students":8796,"venerable":8797,"il":8798,"economy":8799,"sublime":8800,"courte":8801,"shared":8802,"susp":8803,"unreason":8804,"rugged":8805,"requires":8806,"strang":8807,"encountered":8808,"##oh":8809,"lawrence":8810,"strikes":8811,"abstract":8812,"isaac":8813,"brace":8814,"turk":8815,"pett":8816,"enjoying":8817,"payment":8818,"prudence":8819,"az":8820,"##iary":8821,"cush":8822,"dealing":8823,"ambassad":8824,"unseen":8825,"chalk":8826,"##fl":8827,"betw":8828,"pleaded":8829,"##rep":8830,"morton":8831,"gn":8832,"sworn":8833,"sympathetic":8834,"destined":8835,"diamonds":8836,"comprom":8837,"doings":8838,"greeting":8839,"swam":8840,"baxter":8841,"preceding":8842,"margin":8843,"excurs":8844,"calif":8845,"##cerity":8846,"weep":8847,"vane":8848,"owners":8849,"background":8850,"hed":8851,"##vis":8852,"locks":8853,"pushing":8854,"##imately":8855,"springs":8856,"captive":8857,"dipl":8858,"herr":8859,"_de":8860,"flick":8861,"engra":8862,"swallowed":8863,"##esses":8864,"duc":8865,"combined":8866,"defect":8867,"##thy":8868,"simon":8869,"divide":8870,"hetty":8871,"stained":8872,"pang":8873,"metaph":8874,"reasoning":8875,"pencil":8876,"heights":8877,"doom":8878,"scared":8879,"inspiration":8880,"serene":8881,"musket":8882,"sylv":8883,"subsequent":8884,"neighbors":8885,"##occ":8886,"fret":8887,"##reet":8888,"traces":8889,"hug":8890,"conspicuous":8891,"devils":8892,"honesty":8893,"novels":8894,"rider":8895,"cordial":8896,"##usal":8897,"wool":8898,"explos":8899,"widely":8900,"feminine":8901,"pacific":8902,"##icket":8903,"lugg":8904,"institutions":8905,"eloquence":8906,"invention":8907,"machinery":8908,"coral":8909,"##ulously":8910,"dwarf":8911,"beatrice":8912,"ja":8913,"##uces":8914,"fancies":8915,"illustrated":8916,"##dinand":8917,"exchanged":8918,"rack":8919,"vital":8920,"everl":8921,"singularly":8922,"californ":8923,"##urt":8924,"unqu":8925,"insects":8926,"polished":8927,"transform":8928,"prudent":8929,"heel":8930,"hypocr":8931,"vin":8932,"178":8933,"hunted":8934,"ghast":8935,"largest":8936,"##ocks":8937,"##minster":8938,"##agues":8939,"guid":8940,"gloves":8941,"tenderly":8942,"atlantic":8943,"rows":8944,"canada":8945,"flowing":8946,"distrust":8947,"rue":8948,"lace":8949,"dragon":8950,"ket":8951,"##ira":8952,"commanding":8953,"exhibited":8954,"supplies":8955,"mouths":8956,"cardinal":8957,"tab":8958,"furnish":8959,"gregory":8960,"betwixt":8961,"piano":8962,"##wa":8963,"tiger":8964,"##urg":8965,"styled":8966,"##ican":8967,"squee":8968,"marvellous":8969,"maker":8970,"surf":8971,"vigor":8972,"carelessly":8973,"bacon":8974,"cavern":8975,"sult":8976,"drown":8977,"morality":8978,"declaration":8979,"fen":8980,"mayor":8981,"tread":8982,"stake":8983,"sunny":8984,"symbol":8985,"tru":8986,"muscles":8987,"quoth":8988,"accomplish":8989,"_that":8990,"encouragement":8991,"##urable":8992,"reass":8993,"flu":8994,"campbell":8995,"trifling":8996,"fantastic":8997,"##ka":8998,"dignified":8999,"xiv":9000,"##ester":9001,"ric":9002,"ford":9003,"fatigue":9004,"sque":9005,"slack":9006,"peculiarly":9007,"vile":9008,"benev":9009,"sports":9010,"va":9011,"enlight":9012,"groaned":9013,"failing":9014,"##icians":9015,"wire":9016,"ascended":9017,"##---":9018,"growled":9019,"appreciate":9020,"lazy":9021,"seventeen":9022,"external":9023,"gordon":9024,"persisted":9025,"stalk":9026,"muff":9027,"##acre":9028,"comprehend":9029,"harding":9030,"charms":9031,"temperament":9032,"facult":9033,"bees":9034,"balls":9035,"dusk":9036,"feud":9037,"hurrying":9038,"incredible":9039,"##ogue":9040,"mike":9041,"examples":9042,"exists":9043,"holland":9044,"una":9045,"glare":9046,"hail":9047,"##wed":9048,"neighbouring":9049,"attained":9050,"bland":9051,"diplom":9052,"catherine":9053,"shab":9054,"##rift":9055,"awaken":9056,"doctors":9057,"limb":9058,"frederick":9059,"claimed":9060,"##spr":9061,"specimen":9062,"##ucky":9063,"shrugged":9064,"##hire":9065,"twist":9066,"discretion":9067,"pyr":9068,"ferdinand":9069,"##culty":9070,"pirates":9071,"throb":9072,"##olk":9073,"dimly":9074,"swallow":9075,"jonas":9076,"bomb":9077,"##vent":9078,"##geons":9079,"plead":9080,"hesitate":9081,"potat":9082,"skins":9083,"190":9084,"pirate":9085,"carved":9086,"comfortably":9087,"dusty":9088,"jap":9089,"today":9090,"##vil":9091,"faculty":9092,"##ceptible":9093,"artistic":9094,"##oping":9095,"scound":9096,"emerged":9097,"torture":9098,"faculties":9099,"enqu":9100,"forgetting":9101,"unconsciously":9102,"yacht":9103,"moist":9104,"commerce":9105,"abode":9106,"blake":9107,"dug":9108,"##jac":9109,"alleg":9110,"##ripp":9111,"thor":9112,"invari":9113,"released":9114,"sprung":9115,"tint":9116,"edmund":9117,"barely":9118,"recorded":9119,"!)":9120,"foli":9121,"ropes":9122,"paths":9123,"liquor":9124,"rational":9125,"invented":9126,"trun":9127,"blade":9128,"witnessed":9129,"vind":9130,"##inth":9131,"org":9132,"prejudice":9133,"creeping":9134,"cousins":9135,"appearing":9136,"leaping":9137,"##elled":9138,"guided":9139,"producing":9140,"startling":9141,"tooth":9142,"estates":9143,"mirth":9144,"yawn":9145,"adventur":9146,"boughs":9147,"##inkled":9148,"climbing":9149,"quoted":9150,"befall":9151,"shove":9152,"invariably":9153,"##itably":9154,"rend":9155,"jasper":9156,"##oked":9157,"chains":9158,"##ursday":9159,"welcom":9160,"hermit":9161,"embro":9162,"sculpt":9163,"dol":9164,"faithfully":9165,"cale":9166,"rays":9167,"##as_":9168,"owed":9169,"rubbed":9170,"egyptian":9171,"##enge":9172,"robe":9173,"barren":9174,"sweetness":9175,"steer":9176,"fashionable":9177,"extremity":9178,"caroline":9179,"##pool":9180,"broo":9181,"situated":9182,"bin":9183,"scots":9184,"expressing":9185,"##heard":9186,"##pelled":9187,"##sett":9188,"disorder":9189,"totally":9190,"perplexed":9191,"impud":9192,"monkey":9193,"pathetic":9194,"sinner":9195,"dresses":9196,"sag":9197,"agatha":9198,"battles":9199,"##water":9200,"stool":9201,"crowned":9202,"pomp":9203,"##andy":9204,"whereupon":9205,"screamed":9206,"resentment":9207,"cows":9208,"vap":9209,"##aneously":9210,"psych":9211,"shadowy":9212,"##ilian":9213,"swinging":9214,"protected":9215,"stooped":9216,"ghastly":9217,"clare":9218,"spectacles":9219,"##onse":9220,"formation":9221,"fortress":9222,"examining":9223,"executed":9224,"tan":9225,"bigger":9226,"arc":9227,"depended":9228,"andy":9229,"##otto":9230,"crus":9231,"accent":9232,"asserted":9233,"##urre":9234,"##ials":9235,"hears":9236,"tough":9237,"sixth":9238,"associated":9239,"loyalty":9240,"tempest":9241,"cel":9242,"ul":9243,"##rig":9244,"carl":9245,"function":9246,"wholesome":9247,"mouse":9248,"shilling":9249,"blunder":9250,"grimly":9251,"crystal":9252,"mask":9253,"daw":9254,"##agers":9255,"godfrey":9256,"believes":9257,"snuff":9258,"superiority":9259,"canoes":9260,"youngest":9261,"apartments":9262,"bot":9263,"viz":9264,"knot":9265,"##ivable":9266,"expenses":9267,"ridden":9268,"tongues":9269,"trumpet":9270,"inheritance":9271,"stevenson":9272,"jail":9273,"pam":9274,"screw":9275,"##imer":9276,"chorus":9277,"instruction":9278,"goose":9279,"poll":9280,"advers":9281,"games":9282,"liable":9283,"carpent":9284,"##acing":9285,"##====":9286,"restore":9287,"remarkably":9288,"attendant":9289,"terrified":9290,"vehic":9291,"gigantic":9292,"umbre":9293,"martha":9294,"arter":9295,"lag":9296,"illustrations":9297,"navy":9298,"drifted":9299,"offers":9300,"shrie":9301,"thieves":9302,"wreat":9303,"peer":9304,"entertainment":9305,"##fold":9306,"consists":9307,"harmony":9308,"##berts":9309,"burns":9310,"hob":9311,"mix":9312,"russia":9313,"##orable":9314,"incidents":9315,"decline":9316,"sands":9317,"louder":9318,"brim":9319,"foes":9320,"threatening":9321,"cautious":9322,"valleys":9323,"roughly":9324,"nun":9325,"prost":9326,"involunt":9327,"wonders":9328,"monument":9329,"negroes":9330,"##atus":9331,"defiance":9332,"cents":9333,"clinging":9334,"germans":9335,"commit":9336,"attempting":9337,"pose":9338,"##asty":9339,"greeks":9340,"stealing":9341,"corpse":9342,"ceiling":9343,"latest":9344,"mau":9345,"swing":9346,"suppressed":9347,"],":9348,"league":9349,"plates":9350,"autom":9351,"casting":9352,"crawley":9353,"rejected":9354,"visiting":9355,"antagon":9356,"py":9357,"incess":9358,"sep":9359,"adap":9360,"maur":9361,"rosy":9362,"spears":9363,"stamped":9364,"applause":9365,"##fare":9366,"moust":9367,"aspir":9368,"oppon":9369,"attendants":9370,"essentially":9371,"##spring":9372,"cake":9373,"##zes":9374,"paces":9375,"scept":9376,",\"--":9377,"creed":9378,"julian":9379,"misunder":9380,"interpret":9381,"forbidden":9382,"extensive":9383,"seamen":9384,"##usively":9385,"calam":9386,"sincerity":9387,"harmless":9388,"behaviour":9389,"isol":9390,"plague":9391,"regiments":9392,"inclination":9393,"bulk":9394,"ejac":9395,"liking":9396,"disaster":9397,"anguish":9398,"##sex":9399,"merchants":9400,"##lac":9401,"git":9402,"chatter":9403,"glor":9404,"culture":9405,"herd":9406,"hostile":9407,"unkind":9408,"scholar":9409,"##ppy":9410,"sweeping":9411,"mixture":9412,"captains":9413,"exhaust":9414,"##cut":9415,"prow":9416,"ernest":9417,"##rical":9418,"blazing":9419,"communicated":9420,"consulted":9421,"##eridge":9422,"smoked":9423,"resources":9424,"murray":9425,"##aste":9426,"laden":9427,"medium":9428,"intolerable":9429,"lastly":9430,"interposed":9431,"superstition":9432,"charges":9433,"sympt":9434,"picking":9435,"assertion":9436,"##ca":9437,"dies":9438,"disd":9439,"triumphant":9440,"riv":9441,"groom":9442,"treason":9443,"african":9444,"sire":9445,"artists":9446,"exciting":9447,"staggered":9448,"token":9449,"analog":9450,"allen":9451,"experiences":9452,"phineas":9453,"punct":9454,"territory":9455,"peasants":9456,"swed":9457,"tracks":9458,"spots":9459,"punished":9460,"beef":9461,"hagg":9462,"consul":9463,"reflections":9464,"cul":9465,"ron":9466,"##onies":9467,"spreading":9468,"abundance":9469,"##elity":9470,"coats":9471,"partial":9472,"softened":9473,"loth":9474,"boom":9475,"darwin":9476,"route":9477,"treachery":9478,"bite":9479,"kins":9480,"conquest":9481,"quad":9482,"_to":9483,"forb":9484,"colors":9485,"gut":9486,"mic":9487,"handful":9488,"squir":9489,"murderer":9490,"wolves":9491,"agitated":9492,"arriving":9493,"thursday":9494,"carn":9495,"glances":9496,"175":9497,"oldest":9498,"burke":9499,"suspended":9500,"museum":9501,"##idences":9502,"##rah":9503,"thirteen":9504,"apology":9505,"archb":9506,"parlor":9507,"baker":9508,"##anna":9509,"reverend":9510,"elephant":9511,"crimes":9512,"basil":9513,"pilot":9514,"colonies":9515,"godd":9516,"fragment":9517,"pouring":9518,"recess":9519,"magistrate":9520,"earned":9521,"bowl":9522,"reappe":9523,"grotes":9524,"assent":9525,"superint":9526,"archbishop":9527,"strained":9528,"mes":9529,"dexter":9530,"##ifice":9531,"lions":9532,"summons":9533,"gild":9534,"images":9535,"customary":9536,"methinks":9537,"mysteries":9538,"brutal":9539,"oa":9540,"searched":9541,"hymn":9542,"hered":9543,"gene":9544,"allowance":9545,"rim":9546,"juan":9547,"bou":9548,"abuse":9549,"nostr":9550,"peop":9551,"ry":9552,"##ilton":9553,"intimacy":9554,"baff":9555,"westward":9556,"##mun":9557,"quer":9558,"berth":9559,"pickwick":9560,"trod":9561,"44":9562,"mabel":9563,"##criptions":9564,"pupil":9565,"sustained":9566,"foliage":9567,"kirk":9568,"gravel":9569,"##vered":9570,"barrel":9571,"specimens":9572,"shapes":9573,"serpent":9574,"alert":9575,"boers":9576,"patiently":9577,"strip":9578,"breaks":9579,"treasures":9580,"purchased":9581,"harp":9582,"sarc":9583,"seizing":9584,"talks":9585,"_ch":9586,"math":9587,"tuck":9588,"finer":9589,"detach":9590,"farmers":9591,"japan":9592,"reprod":9593,"essay":9594,"outrage":9595,"##orney":9596,"wickedness":9597,"tricks":9598,"solom":9599,"prospects":9600,"anticipated":9601,"everlasting":9602,"coven":9603,"scold":9604,"confounded":9605,"unusually":9606,"candles":9607,"pots":9608,"##itimate":9609,"##rude":9610,"orph":9611,"##phem":9612,"cicero":9613,"ascend":9614,"##zel":9615,"eminent":9616,"despised":9617,"governess":9618,"cats":9619,"knocking":9620,"init":9621,"thyself":9622,"stretching":9623,"ripp":9624,"uses":9625,"attorney":9626,"mute":9627,"##cus":9628,"whatsoever":9629,"##idly":9630,"earnestness":9631,"ingenious":9632,"pipes":9633,"deepest":9634,"##inese":9635,"converted":9636,"anthony":9637,"albert":9638,"canal":9639,"shrank":9640,"nab":9641,"valent":9642,"bluff":9643,"traced":9644,"prosec":9645,"knox":9646,"rect":9647,"genial":9648,"parag":9649,"argued":9650,"pitt":9651,"##lor":9652,"generosity":9653,"despise":9654,"borrowed":9655,"mow":9656,"refined":9657,"nobility":9658,"fulfil":9659,"prolonged":9660,"tragic":9661,"ecst":9662,"stab":9663,"embarrassment":9664,"rector":9665,"##ggs":9666,"petty":9667,"##oles":9668,"infl":9669,"warren":9670,"subord":9671,"basis":9672,"sheriff":9673,"revelation":9674,"##anth":9675,"designs":9676,"split":9677,"duly":9678,"discharge":9679,"rip":9680,"loath":9681,"blankets":9682,"lid":9683,"shower":9684,"##etically":9685,"aloft":9686,"offspring":9687,"falsehood":9688,"griev":9689,"inherited":9690,"wea":9691,"flowed":9692,"instruments":9693,"darkened":9694,"gor":9695,"construction":9696,"instincts":9697,"allies":9698,"harmon":9699,"sufferings":9700,"gird":9701,"##atical":9702,"dock":9703,"confirm":9704,"##unci":9705,"roy":9706,"rifles":9707,"##pling":9708,"dreaded":9709,"rou":9710,"untr":9711,"fiend":9712,"stem":9713,"tremble":9714,"foremost":9715,"sod":9716,"clasp":9717,"writings":9718,"coinc":9719,"##vish":9720,"overboard":9721,"redeem":9722,"assistant":9723,"opera":9724,"wreath":9725,"##pow":9726,"chinese":9727,"knelt":9728,"##agne":9729,"##udder":9730,"coleridge":9731,"publ":9732,"waistcoat":9733,"winning":9734,"massive":9735,"##lorn":9736,"rejoice":9737,"##istered":9738,"##elm":9739,"missionary":9740,"release":9741,"sic":9742,"appealed":9743,"needful":9744,"administration":9745,"housekeeper":9746,"bags":9747,"tastes":9748,"##uesday":9749,"desperately":9750,"scholars":9751,"carriages":9752,"whispering":9753,"sarah":9754,"moore":9755,"monks":9756,"continual":9757,"considerations":9758,"brightness":9759,"opportunities":9760,"exhibition":9761,"tumbled":9762,"dolly":9763,"harvest":9764,"wisely":9765,"sends":9766,"wealthy":9767,"##sed":9768,"vicinity":9769,"desirous":9770,"sab":9771,"rese":9772,"annie":9773,"erected":9774,"lic":9775,"shots":9776,"bonds":9777,"serving":9778,"separation":9779,"confron":9780,"bursting":9781,"propriety":9782,"##lessness":9783,"stepping":9784,"horseback":9785,"approval":9786,"bottles":9787,"recognise":9788,"counting":9789,"clarence":9790,"allusion":9791,"remedy":9792,"impass":9793,"deceive":9794,"intensity":9795,"compens":9796,"##gus":9797,"##iciency":9798,"##riel":9799,"objected":9800,"crab":9801,"revolver":9802,"##ris":9803,"milton":9804,"##nesday":9805,"nothin":9806,"disli":9807,"manhood":9808,"studying":9809,"tents":9810,"_in":9811,"insin":9812,"negot":9813,"reckoned":9814,"lighter":9815,"hammer":9816,"sung":9817,"alley":9818,"imitation":9819,"springing":9820,"proofs":9821,"blanket":9822,"60":9823,"acute":9824,"shoe":9825,"nigel":9826,"dum":9827,"pollen":9828,"misch":9829,"agreement":9830,"luncheon":9831,"##olved":9832,"promising":9833,"awaiting":9834,"spirited":9835,"ninety":9836,"sorrows":9837,"trunks":9838,"forlorn":9839,"animated":9840,"berlin":9841,"scripture":9842,"daniel":9843,"debts":9844,"soothing":9845,"carries":9846,"descending":9847,"##bird":9848,"backwards":9849,"idiot":9850,"casual":9851,"truths":9852,"defeated":9853,"advertis":9854,"##ouncing":9855,"melted":9856,"pulp":9857,"##irs":9858,"bravely":9859,"honorable":9860,"cuth":9861,"disreg":9862,"organs":9863,"hud":9864,"hark":9865,"scal":9866,"48":9867,"solution":9868,"slopes":9869,"##version":9870,"constr":9871,"....\"":9872,"choked":9873,"##abouts":9874,"baronet":9875,"bolt":9876,"confidential":9877,"riot":9878,"waking":9879,"unch":9880,"designed":9881,"obstinate":9882,"purity":9883,"defin":9884,"compliments":9885,"unim":9886,"distressed":9887,"buffalo":9888,"bully":9889,"prophe":9890,"submitted":9891,"hazard":9892,"endured":9893,"welf":9894,"preface":9895,"slim":9896,"forgiven":9897,"demon":9898,"therein":9899,"mines":9900,"flav":9901,"##cence":9902,"assail":9903,"attendance":9904,"bachel":9905,"eu":9906,"quivering":9907,"##akable":9908,"partners":9909,"abbot":9910,"##ingle":9911,"sund":9912,"poo":9913,"strat":9914,"volcan":9915,"turf":9916,"##long":9917,"visions":9918,"ornaments":9919,"controvers":9920,"corridor":9921,"##ties":9922,"lined":9923,"snatched":9924,"villa":9925,"##isons":9926,"thro":9927,"recommended":9928,"sincerely":9929,"lob":9930,"chil":9931,"worried":9932,"relatives":9933,"bounds":9934,"pitched":9935,"hinted":9936,"kenn":9937,"effective":9938,"deliberate":9939,"pel":9940,"strove":9941,"graves":9942,"affirm":9943,"keys":9944,"gau":9945,"##alling":9946,"detective":9947,"piled":9948,"evolution":9949,"greece":9950,"combination":9951,"adher":9952,"personage":9953,"resolve":9954,"travels":9955,"##adel":9956,"convince":9957,"gir":9958,"exter":9959,"robinson":9960,"agric":9961,"benj":9962,"welfare":9963,"mig":9964,"##yne":9965,"response":9966,"##ros":9967,"lawyers":9968,"exting":9969,"177":9970,"significance":9971,"irresistible":9972,"peters":9973,"breeding":9974,"downward":9975,"rounded":9976,"honoured":9977,"furiously":9978,"matthew":9979,"bands":9980,"##ells":9981,"weighed":9982,"preacher":9983,"_se":9984,"##cession":9985,"##rose":9986,"horsemen":9987,"portions":9988,"vigour":9989,"coolly":9990,"dial":9991,"sly":9992,"spur":9993,"bliss":9994,"communicate":9995,"challenge":9996,"adapted":9997,"alluded":9998,"resigned":9999,"secre":10000,"discharged":10001,"xiii":10002,"##inton":10003,"publish":10004,"annoyed":10005,"suspense":10006,"'-":10007,"onward":10008,"secl":10009,"tools":10010,"hardship":10011,"lung":10012,"##away":10013,"besie":10014,"damage":10015,"ascertained":10016,"elean":10017,"mule":10018,"attending":10019,"fawn":10020,"grotesque":10021,"companies":10022,"##rup":10023,"embroid":10024,"cav":10025,"perception":10026,"eloquent":10027,"needle":10028,"blossom":10029,"hoofs":10030,"hack":10031,"exertion":10032,"sage":10033,"harness":10034,"fath":10035,"tightly":10036,"pas":10037,"stur":10038,"argue":10039,"mare":10040,"chancell":10041,"intently":10042,"inconsist":10043,"##elf":10044,"##er_":10045,"ank":10046,"flashing":10047,"landlady":10048,"reddy":10049,"detected":10050,"transact":10051,"abomin":10052,"interference":10053,"stealth":10054,"wizard":10055,"rotten":10056,"gorgeous":10057,"##ashes":10058,"gratified":10059,"rubb":10060,"patrick":10061,"hurled":10062,"elaborate":10063,"kicked":10064,"ordin":10065,"estimate":10066,"kneeling":10067,"acquaintances":10068,"##erity":10069,"##alls":10070,"alien":10071,"sphere":10072,"swimming":10073,"dain":10074,"hesitating":10075,"awaited":10076,"successive":10077,"hypothesis":10078,"carr":10079,"secondly":10080,"##zar":10081,"impet":10082,"append":10083,"accounted":10084,"len":10085,"##no":10086,"cane":10087,"favoured":10088,"##gone":10089,"abol":10090,"pretence":10091,"appropriate":10092,"portugues":10093,"frail":10094,"fraud":10095,"behave":10096,"eccles":10097,"effectually":10098,"prosperous":10099,"rascal":10100,"lor":10101,"blanche":10102,"cooking":10103,"_pr":10104,"vow":10105,"humility":10106,"portuguese":10107,"bef":10108,"demean":10109,"##icism":10110,"virtuous":10111,"speculation":10112,"tuesday":10113,"##ceptions":10114,"##urrection":10115,"superintend":10116,"ammun":10117,"prodigious":10118,"8vo":10119,"embarrassed":10120,"##cca":10121,"packet":10122,"cuthbert":10123,"##ills":10124,"stif":10125,"moh":10126,"vexed":10127,"senior":10128,"crooked":10129,"privately":10130,"spectators":10131,"##ifies":10132,"cars":10133,"crad":10134,"lingering":10135,"##mons":10136,"roberts":10137,"borrow":10138,"kitty":10139,"gardener":10140,"butterf":10141,"oft":10142,"ammunition":10143,"##ih":10144,"spen":10145,"civilized":10146,"yelled":10147,"records":10148,"flint":10149,"##velope":10150,"acquies":10151,"epoch":10152,"cage":10153,"shift":10154,"logs":10155,"professed":10156,"pursu":10157,"mechanical":10158,"accurate":10159,"dot":10160,"lumber":10161,"##amin":10162,"pert":10163,"touches":10164,"declaring":10165,"seventh":10166,"engineer":10167,"cable":10168,"withered":10169,"translation":10170,"navig":10171,"prominent":10172,"labours":10173,"belle":10174,"strolled":10175,"##inia":10176,"squad":10177,"thrice":10178,"panting":10179,"##bled":10180,"##chn":10181,"gert":10182,"vault":10183,"aft":10184,"personality":10185,"interruption":10186,"##bles":10187,"dragging":10188,"emphasis":10189,"globe":10190,"##ounding":10191,"sinners":10192,"scramb":10193,"lizz":10194,"agents":10195,"objections":10196,"##........":10197,"##enet":10198,"coron":10199,"bunch":10200,"cert":10201,"##ama":10202,"leo":10203,"scout":10204,"merr":10205,"##ervation":10206,"##omy":10207,"resort":10208,"insign":10209,"painfully":10210,"underne":10211,"saloon":10212,"##ulent":10213,"quitted":10214,"##apping":10215,"underneath":10216,"planned":10217,"allowing":10218,"bisc":10219,"reverse":10220,"wednesday":10221,"_ex":10222,"##rec":10223,"swamp":10224,"uneasiness":10225,"maxim":10226,"publisher":10227,"agricult":10228,"200":10229,"crawled":10230,"_is_":10231,"lil":10232,"partially":10233,"hopeful":10234,"teleph":10235,"samuel":10236,"ruled":10237,"boss":10238,"pigs":10239,"noiseless":10240,"fulfilled":10241,"nu":10242,"fearing":10243,"dependent":10244,"battery":10245,"highway":10246,"volunt":10247,"identity":10248,"spray":10249,"_i":10250,"somer":10251,"experiments":10252,"##eled":10253,"media":10254,"determine":10255,"translated":10256,"paragraph":10257,"hostess":10258,"ee":10259,"nas":10260,"bann":10261,"##iffe":10262,"beam":10263,"hae":10264,"excepting":10265,"sleepy":10266,"solomon":10267,"##ees":10268,"explaining":10269,"sexual":10270,"mourning":10271,"daisy":10272,"dove":10273,"attachment":10274,"##idity":10275,"pledge":10276,"contend":10277,"humbly":10278,"##hurst":10279,"pistols":10280,"rattle":10281,"tyrant":10282,"perchance":10283,"talents":10284,"panic":10285,"46":10286,"jake":10287,"ante":10288,"##anting":10289,"ending":10290,"temples":10291,"sealed":10292,"chick":10293,"##ux":10294,"jove":10295,"champion":10296,"##die":10297,"conform":10298,"republican":10299,"ambitious":10300,"watson":10301,"hue":10302,"##cott":10303,"##bal":10304,"##cible":10305,"excellency":10306,"fuss":10307,"##bey":10308,"spending":10309,"severity":10310,"modified":10311,"171":10312,"investigation":10313,"_me":10314,"tame":10315,"osb":10316,"##armed":10317,"expand":10318,"grieved":10319,"flank":10320,"##atches":10321,"keenly":10322,"boards":10323,"improb":10324,"requested":10325,"enthusiastic":10326,"disappro":10327,"clement":10328,"concerns":10329,"civilisation":10330,"architect":10331,"##ooks":10332,"##yon":10333,"##iantly":10334,"abys":10335,"infle":10336,"47":10337,"##quate":10338,"imaginary":10339,"##mates":10340,"beet":10341,"interven":10342,"buzz":10343,"exercised":10344,"alliance":10345,"##cend":10346,"usher":10347,"walker":10348,"repeating":10349,"pillars":10350,".;":10351,"hilda":10352,"harbor":10353,"publication":10354,"impressive":10355,"##zzle":10356,"physi":10357,"conscient":10358,"miser":10359,"defended":10360,"morals":10361,"##inged":10362,"dishes":10363,"significant":10364,"elevated":10365,"stal":10366,"herald":10367,"agin":10368,"periods":10369,"approve":10370,"feeding":10371,"parr":10372,"##kee":10373,"doomed":10374,"envelope":10375,"receipt":10376,"ing":10377,"barrier":10378,"horace":10379,"rosam":10380,"web":10381,"cheese":10382,"conclusions":10383,"##idious":10384,"daybreak":10385,"blushed":10386,"submission":10387,"bail":10388,"lump":10389,"chic":10390,"robes":10391,"influences":10392,"huts":10393,"dyn":10394,"brist":10395,"commonplace":10396,"intensely":10397,"lain":10398,"opens":10399,"wiped":10400,"ditch":10401,"lame":10402,"##asure":10403,"noisy":10404,"moves":10405,"splendour":10406,"repress":10407,"ultimate":10408,"##________":10409,"##rise":10410,"approved":10411,"tyranny":10412,"prelim":10413,"appoint":10414,"simult":10415,"logic":10416,"oppressed":10417,"chancellor":10418,"bang":10419,"recovering":10420,"ecclesi":10421,"bury":10422,"dryden":10423,"harris":10424,"stubb":10425,"wider":10426,"adjo":10427,"##ciences":10428,"california":10429,"cripp":10430,"scrut":10431,"##alty":10432,"clum":10433,"hawk":10434,"abd":10435,"urs":10436,"orient":10437,"_and":10438,"syll":10439,"inquis":10440,"steadfast":10441,"extending":10442,"dagger":10443,"motor":10444,"amazing":10445,"##unting":10446,"evenings":10447,"meetings":10448,"clumsy":10449,"humorous":10450,"moors":10451,"withdrawn":10452,"concert":10453,"dreadfully":10454,"##eron":10455,"##ito":10456,"##velled":10457,"hamlet":10458,"unexpectedly":10459,"eyel":10460,"expressive":10461,"cellar":10462,"##atra":10463,"semi":10464,"slaughter":10465,"hound":10466,"inspector":10467,"tenth":10468,"##uation":10469,"perished":10470,"solely":10471,"##lect":10472,"##ipps":10473,"banner":10474,"dia":10475,"##ras":10476,"glist":10477,"hereditary":10478,"toast":10479,"anec":10480,"exal":10481,"slid":10482,"malice":10483,"##ppers":10484,"strode":10485,"eric":10486,"anecd":10487,"##apped":10488,"fergus":10489,"eleanor":10490,"assass":10491,"petition":10492,"repentance":10493,"##aron":10494,"overth":10495,"##ilet":10496,"illumin":10497,"schemes":10498,"bridle":10499,"pupils":10500,"##ules":10501,"##aby":10502,"_that_":10503,"shudder":10504,"mcc":10505,"footing":10506,"##isms":10507,"teddy":10508,"advocate":10509,"##izz":10510,"omin":10511,"##ele":10512,"regretted":10513,"instructed":10514,"appreciation":10515,"aided":10516,"knives":10517,"privileges":10518,"##pered":10519,"##boat":10520,"representation":10521,"merciful":10522,"raft":10523,"circles":10524,"maids":10525,"shawl":10526,"resignation":10527,"agnes":10528,"newman":10529,"appearances":10530,"perv":10531,"alternative":10532,"##woman":10533,"##oper":10534,"volta":10535,"shades":10536,"./":10537,"remn":10538,"westminster":10539,"resembled":10540,"sparkling":10541,"tink":10542,"##itous":10543,"##uman":10544,"wales":10545,"abundant":10546,"errors":10547,"##emble":10548,"sleeve":10549,"invalid":10550,"possessions":10551,"tac":10552,"##ano":10553,"##seau":10554,"infirm":10555,"ou":10556,"wallace":10557,"critics":10558,"ransom":10559,"umbrella":10560,"utterance":10561,"indulgence":10562,"_al":10563,"stain":10564,"sweat":10565,"elevation":10566,"complicated":10567,"homer":10568,"xvi":10569,"##isen":10570,"meals":10571,"hire":10572,"occurrence":10573,"spoiled":10574,"ambassador":10575,"##oped":10576,"sadness":10577,"roofs":10578,"##oeuv":10579,"eternity":10580,"##sis":10581,"##unned":10582,"##istics":10583,"wrist":10584,"undertaking":10585,"##oning":10586,"tempered":10587,"amend":10588,"judging":10589,"gleaming":10590,"plunge":10591,"goddess":10592,"grandeur":10593,"extend":10594,"bung":10595,"admiring":10596,"audible":10597,"perilous":10598,"##ranean":10599,"aqu":10600,"##piece":10601,"wharf":10602,"internal":10603,"generals":10604,"iniqu":10605,"stam":10606,"repuls":10607,"respectful":10608,"achieved":10609,"##ayer":10610,"riches":10611,"##lle":10612,"soup":10613,"stanley":10614,"##anes":10615,"keith":10616,"restaur":10617,"acquire":10618,"victims":10619,"hamilton":10620,"vainly":10621,"yon":10622,"clem":10623,"weariness":10624,"amen":10625,"procl":10626,"passionately":10627,"sez":10628,"exile":10629,"##gery":10630,"beau":10631,"burton":10632,"##bl":10633,"##aire":10634,"scow":10635,"posted":10636,"nobleman":10637,"instinctively":10638,"##worthy":10639,"##hem":10640,"courty":10641,"brightly":10642,"pearl":10643,"excite":10644,"substantial":10645,"replaced":10646,"discon":10647,"poetical":10648,"contemplation":10649,"meg":10650,"apples":10651,"acres":10652,"destro":10653,"chivalry":10654,"lizzie":10655,"##enon":10656,"swan":10657,"basin":10658,"fetched":10659,"##ieth":10660,"naval":10661,"repl":10662,"devote":10663,"176":10664,"xxiii":10665,"##omet":10666,"upro":10667,"trader":10668,"lanc":10669,"compact":10670,"preser":10671,"##mann":10672,"assigned":10673,"rajah":10674,"fidelity":10675,"##mans":10676,"shorter":10677,"##advant":10678,"tearing":10679,"lawful":10680,"obtaining":10681,"snapped":10682,"expensive":10683,"civilised":10684,"astonishing":10685,"ultimately":10686,"extravagant":10687,"fits":10688,"disadvant":10689,"memorable":10690,"##the":10691,"stragg":10692,"differently":10693,"ivory":10694,"pleases":10695,"skies":10696,"draws":10697,"obstin":10698,"shabby":10699,"##ja":10700,"somerset":10701,"##pole":10702,"##joy":10703,"##utive":10704,"##ulch":10705,"exclaim":10706,"counc":10707,"rejoiced":10708,"explo":10709,"corresponding":10710,"converse":10711,"center":10712,"admission":10713,"_not_":10714,"welcomed":10715,"cass":10716,"##quer":10717,"praised":10718,"bertram":10719,"congregation":10720,"eastward":10721,"soames":10722,"ticket":10723,"##inqu":10724,"sto":10725,"crust":10726,"sahib":10727,"sentin":10728,"49":10729,"emig":10730,"modesty":10731,"attributed":10732,"tart":10733,"stump":10734,"frock":10735,"ware":10736,"##tie":10737,"##adays":10738,"joyous":10739,"recovery":10740,"columbus":10741,"augustus":10742,"ungr":10743,"catast":10744,"##coming":10745,"darted":10746,"mathem":10747,"jenny":10748,"orth":10749,"##sels":10750,"breeds":10751,"dusky":10752,"deprived":10753,"commend":10754,"sombre":10755,"henceforth":10756,"##ocation":10757,"embraced":10758,"hebrew":10759,"nowadays":10760,"surp":10761,"ministry":10762,"indicate":10763,"forgiveness":10764,"tailor":10765,"abh":10766,"quart":10767,"discussing":10768,"marshal":10769,"vehem":10770,"shattered":10771,"skil":10772,"174":10773,"bash":10774,"##ighter":10775,"sturdy":10776,"sabb":10777,"exasper":10778,"prover":10779,"dearly":10780,"sheltered":10781,"##gments":10782,"forbear":10783,"nursery":10784,"mars":10785,"composure":10786,"pinch":10787,"deposited":10788,"prussian":10789,"disposal":10790,"voltaire":10791,"begging":10792,"rescued":10793,"hauled":10794,"##raft":10795,"inhabited":10796,"spencer":10797,"ung":10798,"unity":10799,"##occup":10800,"mand":10801,"##arine":10802,"##iless":10803,"accidents":10804,"conspiracy":10805,"dainty":10806,"comedy":10807,"feverish":10808,"strife":10809,"suffice":10810,"penit":10811,"brooke":10812,"essence":10813,"elected":10814,"ballad":10815,"intending":10816,"kettle":10817,"##aria":10818,"bronze":10819,"patent":10820,"irrit":10821,"attacks":10822,"prejudices":10823,"conse":10824,"shares":10825,"termed":10826,"convenience":10827,"##colm":10828,"ida":10829,"moustache":10830,"tony":10831,"##helm":10832,"##leg":10833,"hester":10834,"detached":10835,"rubbing":10836,"##bie":10837,"##gil":10838,"##thia":10839,"rags":10840,"antony":10841,"observer":10842,"blas":10843,"malcolm":10844,"nour":10845,"##bery":10846,"##ibal":10847,"defined":10848,"statues":10849,"screen":10850,"ardent":10851,"documents":10852,"enters":10853,"charter":10854,"create":10855,"mirac":10856,"##wyn":10857,"toes":10858,"##ignant":10859,"bounded":10860,"shag":10861,"kindred":10862,"coffin":10863,"finan":10864,"mischie":10865,"courtyard":10866,"##nam":10867,"deserves":10868,"proclaimed":10869,"jem":10870,"stag":10871,"arbit":10872,"pled":10873,"recru":10874,"pierced":10875,"revenue":10876,"typ":10877,"maurice":10878,"gertrude":10879,"yan":10880,"workmen":10881,"striving":10882,"insignific":10883,"cracked":10884,"surroundings":10885,"##lem":10886,"retreated":10887,"pest":10888,"beams":10889,"selling":10890,"##icide":10891,"paraly":10892,"clavering":10893,"brighter":10894,"proprietor":10895,"praying":10896,"curve":10897,"kissing":10898,"cyril":10899,"suits":10900,"##airn":10901,"worm":10902,"passenger":10903,"debate":10904,"senate":10905,"dorm":10906,"successfully":10907,"urge":10908,"senator":10909,"seasons":10910,"##cian":10911,"hector":10912,"richmond":10913,"jewel":10914,"phrases":10915,"fertile":10916,"peak":10917,"scor":10918,"turner":10919,"misg":10920,"##iac":10921,"constructed":10922,"(\"":10923,"ker":10924,"stewart":10925,"accordance":10926,"thicket":10927,"seemingly":10928,"adds":10929,"coco":10930,"tacit":10931,"##urned":10932,"cowboy":10933,"gabriel":10934,"##osa":10935,"realised":10936,"felicity":10937,"bessie":10938,"lonel":10939,"diana":10940,"pud":10941,"offensive":10942,"relate":10943,"jill":10944,"##ibus":10945,"birthday":10946,"orchard":10947,"hudson":10948,"resemble":10949,"arabs":10950,"wade":10951,"anon":10952,"syn":10953,"variation":10954,"transpar":10955,"stumbled":10956,"mit":10957,"blushing":10958,"thickly":10959,"ramp":10960,"drows":10961,"adjoining":10962,"\".":10963,"beforehand":10964,"oppose":10965,"bass":10966,"##ensed":10967,"punch":10968,"fundament":10969,"pursuing":10970,"doctrines":10971,"##acks":10972,"distracted":10973,"tonight":10974,"lakes":10975,"harvey":10976,"headlong":10977,"191":10978,"rebu":10979,"procured":10980,"deput":10981,"shrink":10982,"sophy":10983,"abra":10984,"preaching":10985,"ursula":10986,"jaws":10987,")--":10988,"wells":10989,"courteous":10990,"allied":10991,"repet":10992,"tribute":10993,"odious":10994,"##uminous":10995,"##roken":10996,"possibilities":10997,"refusal":10998,"incomp":10999,"pausing":11000,"nodding":11001,"wilhelm":11002,"tails":11003,"nuts":11004,"liverpool":11005,"amate":11006,"overh":11007,"rowed":11008,"##uther":11009,"horribly":11010,"trivial":11011,"exaggerated":11012,"##s_":11013,"palaces":11014,"faltered":11015,"##guard":11016,"contradict":11017,"habitual":11018,"depl":11019,"ali":11020,"script":11021,"##bation":11022,"quarrels":11023,"carpenter":11024,"fib":11025,"tus":11026,"occasioned":11027,"supernatural":11028,"goat":11029,"clive":11030,"skirts":11031,"energetic":11032,"starve":11033,"husbands":11034,"traditions":11035,"crop":11036,"urgent":11037,"pav":11038,"##cock":11039,"imposed":11040,"##xton":11041,"buying":11042,"domest":11043,"daresay":11044,"55":11045,"tas":11046,"roast":11047,"discreet":11048,"version":11049,"hil":11050,"hod":11051,"##rable":11052,"proves":11053,"delayed":11054,"##rified":11055,"eminence":11056,"brushed":11057,"sequ":11058,"sall":11059,"illustrious":11060,"nabob":11061,"##olis":11062,"merton":11063,"poles":11064,"obligation":11065,"sacrificed":11066,"blocks":11067,"ripe":11068,"inland":11069,"##ilion":11070,"flattered":11071,"preached":11072,"exceeding":11073,"sculpture":11074,"entry":11075,"causing":11076,"monoton":11077,"dal":11078,"boyish":11079,"##lton":11080,"copies":11081,"_r":11082,"nasty":11083,"happening":11084,"drifting":11085,"perplexity":11086,"##bow":11087,"bestow":11088,"starved":11089,"gaining":11090,"haughty":11091,"confronted":11092,"unin":11093,"canst":11094,"curled":11095,"equip":11096,"garment":11097,"rousseau":11098,"hinder":11099,"area":11100,"##cloth":11101,"undertaken":11102,"scanty":11103,"heaps":11104,"darker":11105,"decis":11106,"sympathies":11107,"odds":11108,"canad":11109,"kend":11110,"sensations":11111,"augusta":11112,"patsy":11113,"poetic":11114,"liv":11115,"implied":11116,"wearied":11117,"lac":11118,"pretending":11119,"indignantly":11120,"sabbath":11121,"eman":11122,"magdal":11123,"complained":11124,"frighten":11125,"await":11126,"##ocity":11127,"homeward":11128,"wears":11129,"misfortun":11130,"troublesome":11131,"gramm":11132,"handled":11133,"terence":11134,"comparative":11135,"cynthia":11136,"verdict":11137,"outf":11138,"postp":11139,"conventional":11140,"leagues":11141,"claude":11142,"unreasonable":11143,"politeness":11144,"stamm":11145,"rogue":11146,"ledge":11147,"antiquity":11148,"lectures":11149,"mills":11150,"##lson":11151,"##icy":11152,"buoy":11153,"austrian":11154,"bowing":11155,"eug":11156,"##amble":11157,"shelf":11158,"##bourne":11159,"torrent":11160,"gud":11161,"bly":11162,"nails":11163,"kenned":11164,"gull":11165,"chaplain":11166,"torch":11167,"helmet":11168,"dante":11169,"##iors":11170,"##wall":11171,"orle":11172,"strings":11173,"babies":11174,"pearls":11175,"clenched":11176,"sounding":11177,"southward":11178,"bower":11179,"hend":11180,"actor":11181,"sanction":11182,"screaming":11183,"indisc":11184,"extinct":11185,"requis":11186,"ravine":11187,"attentive":11188,"51":11189,"##unders":11190,"dey":11191,"scrib":11192,"##urbed":11193,"impert":11194,"henrietta":11195,"refusing":11196,"traffic":11197,"sylvia":11198,"##ala":11199,"cana":11200,"twit":11201,"languages":11202,"glided":11203,"jumping":11204,"banquet":11205,"ef":11206,"client":11207,"##acies":11208,"invite":11209,"tenants":11210,"hillside":11211,"bella":11212,"academy":11213,"grub":11214,"unint":11215,"##rophe":11216,"indulge":11217,"bustle":11218,"hailed":11219,"##oty":11220,"chicago":11221,"misfortunes":11222,"vehicle":11223,"prices":11224,"northward":11225,"saviour":11226,"withal":11227,"descendants":11228,"desolation":11229,"suck":11230,"outst":11231,"continuous":11232,"settling":11233,"shuddered":11234,"rubbish":11235,"##qual":11236,"syd":11237,"realise":11238,"gaunt":11239,"spaniard":11240,"sultan":11241,"##gars":11242,"richly":11243,"aristocracy":11244,"##iliation":11245,"lighting":11246,"evils":11247,"##shaw":11248,"topic":11249,"associations":11250,"exertions":11251,"austin":11252,"smother":11253,"finn":11254,"##idays":11255,"subjected":11256,"proportions":11257,"infernal":11258,"edges":11259,"welsh":11260,"gin":11261,"gloss":11262,"watches":11263,"charmed":11264,"elapsed":11265,"esqu":11266,"lodged":11267,"champagne":11268,"bachelor":11269,"loneliness":11270,"spurs":11271,"profoundly":11272,"fowl":11273,"exalted":11274,"engines":11275,"livel":11276,"stripped":11277,"rebel":11278,"vib":11279,"fork":11280,"whiskers":11281,"representing":11282,"jeth":11283,"stockings":11284,"indulged":11285,"preceded":11286,"barbarous":11287,"##ctic":11288,"##aston":11289,"truck":11290,"patches":11291,"negative":11292,"tasted":11293,"preference":11294,"bored":11295,"##folk":11296,"##etime":11297,"horrors":11298,"didst":11299,"equality":11300,"unsu":11301,"bleeding":11302,"bould":11303,"proudly":11304,"spont":11305,"palp":11306,"gaily":11307,"cust":11308,"##igible":11309,"apprent":11310,"##going":11311,"whisky":11312,"bishops":11313,"governed":11314,"##enzie":11315,"australia":11316,"##gency":11317,"auld":11318,"oblige":11319,"disdain":11320,"##ighty":11321,"cro":11322,"wrest":11323,"newcome":11324,"insuff":11325,"admirably":11326,"alexand":11327,"competition":11328,"scoundrel":11329,"restrained":11330,"##count":11331,"warfare":11332,"float":11333,"weren":11334,"reins":11335,"parcel":11336,"verge":11337,"positions":11338,"kil":11339,"confed":11340,"accuracy":11341,"abide":11342,"pia":11343,"##lley":11344,"cleop":11345,"milit":11346,"painters":11347,"symptoms":11348,"leop":11349,"afar":11350,"indist":11351,"clerks":11352,"otter":11353,"giles":11354,"fabr":11355,"annual":11356,"compromise":11357,"intern":11358,"rapidity":11359,"announcement":11360,"stubborn":11361,"##rance":11362,"glas":11363,"endeavouring":11364,"stooping":11365,"1st":11366,"based":11367,"frances":11368,"perci":11369,"um":11370,"contemporary":11371,"plank":11372,"guar":11373,"circus":11374,"luggage":11375,"foll":11376,"occurs":11377,"democracy":11378,"corporal":11379,"##rest":11380,"beech":11381,"melod":11382,"grinned":11383,"superstitious":11384,"cleopatra":11385,"chaff":11386,"invasion":11387,"builder":11388,"whistling":11389,"chart":11390,"procure":11391,"theories":11392,"aaron":11393,"xxiv":11394,"philosophical":11395,"normal":11396,"sentences":11397,"##crow":11398,"##rons":11399,"trials":11400,"revived":11401,"sums":11402,"neatly":11403,"##ulu":11404,"pitiful":11405,"gait":11406,"infid":11407,"sniff":11408,"inquiring":11409,"philosophers":11410,"veter":11411,"ecclesiast":11412,"ungrate":11413,"shaggy":11414,"##verley":11415,"chester":11416,"##ki":11417,"brink":11418,"constern":11419,"directors":11420,"boarding":11421,"skeleton":11422,"##antine":11423,"grasping":11424,"pamph":11425,"trusting":11426,"indispens":11427,"##iard":11428,"arches":11429,"jessie":11430,"##van":11431,"ascent":11432,"subur":11433,"sunrise":11434,"xvii":11435,"twinkle":11436,"carb":11437,"illeg":11438,"##atics":11439,"honours":11440,"pigeon":11441,"hints":11442,"potatoes":11443,"hi":11444,"whim":11445,"pref":11446,"launch":11447,"exclusively":11448,"rusty":11449,"tolerably":11450,"provinces":11451,"##writing":11452,"ramb":11453,"tak":11454,"wrongs":11455,"cream":11456,"specific":11457,"restrain":11458,"orleans":11459,"consternation":11460,"##ioned":11461,"beauties":11462,"##arrow":11463,"immensely":11464,"jethro":11465,"gap":11466,"thereupon":11467,"mais":11468,"starving":11469,"##niff":11470,"##irect":11471,"mistakes":11472,"novelty":11473,"##mar":11474,"camels":11475,"paras":11476,"types":11477,"displeasure":11478,"marmad":11479,"verily":11480,"extingu":11481,"##ront":11482,"caress":11483,"fireplace":11484,"marmaduke":11485,"##iller":11486,"epis":11487,"offend":11488,"calamity":11489,"percival":11490,"venus":11491,"wheeled":11492,"forfe":11493,"frowned":11494,"unlucky":11495,"overlook":11496,"joys":11497,"statements":11498,"griff":11499,"brigade":11500,"tries":11501,"biggest":11502,"anti":11503,"affectionately":11504,"remin":11505,"streaming":11506,"shroud":11507,"mansoul":11508,"precipice":11509,"presum":11510,"laure":11511,"puritan":11512,"enclosed":11513,"precaution":11514,"##asses":11515,"stray":11516,"ensued":11517,"nineteen":11518,"abraham":11519,"thorne":11520,"divor":11521,"communion":11522,"sorely":11523,"##ptuous":11524,"imaginative":11525,"_ent":11526,"salary":11527,"dissent":11528,"excursion":11529,"##nis":11530,"sweetest":11531,"oxen":11532,"idleness":11533,"##obs":11534,"sources":11535,"sydney":11536,"##mark":11537,"##icit":11538,"##entric":11539,"sped":11540,"crock":11541,"enchanted":11542,"##leigh":11543,"tended":11544,"##ettes":11545,"conference":11546,"piety":11547,"fishes":11548,"spectator":11549,"unbroken":11550,"##inous":11551,"sobbing":11552,"bellow":11553,"stables":11554,"mantle":11555,"kennedy":11556,"mackenzie":11557,"##gger":11558,"profits":11559,"santa":11560,"##lon":11561,"neut":11562,"carth":11563,"legitimate":11564,"_k":11565,"elf":11566,"frantic":11567,"detest":11568,"fisherman":11569,"almighty":11570,"transferred":11571,"indies":11572,"corp":11573,"kisses":11574,"affecting":11575,"dissip":11576,"vein":11577,"organic":11578,"nail":11579,"##unction":11580,"accepting":11581,"##zza":11582,"miracles":11583,"venetian":11584,"indefinite":11585,"techn":11586,"favorable":11587,"overwhelmed":11588,"bah":11589,"##isance":11590,"drawer":11591,"turkey":11592,"##rum":11593,"struggles":11594,"multi":11595,"litter":11596,"rewarded":11597,"##gre":11598,"ther":11599,"lull":11600,"theme":11601,"##ooper":11602,"yielding":11603,"coachman":11604,"##inda":11605,"corruption":11606,"advis":11607,"famine":11608,"cups":11609,"_my":11610,"loaf":11611,"valued":11612,"excellence":11613,"skirt":11614,"diminished":11615,"prophecy":11616,"esp":11617,"haggard":11618,"clamber":11619,"gren":11620,"shuff":11621,"reads":11622,"martial":11623,"solemnity":11624,"cells":11625,"ejaculated":11626,"##atching":11627,"##arm":11628,"resume":11629,"barr":11630,"denial":11631,"succeeding":11632,"queried":11633,"arisen":11634,"crush":11635,"discoura":11636,"cherished":11637,"robber":11638,"disappoint":11639,"victoria":11640,"volley":11641,"##bec":11642,"potent":11643,"familiarity":11644,"mechanically":11645,"commencement":11646,"oo":11647,"mournful":11648,"oar":11649,"anderson":11650,"heret":11651,"rebels":11652,"eccentric":11653,"launcel":11654,"oy":11655,"##itative":11656,"fling":11657,"crom":11658,"babe":11659,"revolt":11660,"paddle":11661,"recollections":11662,"stub":11663,"peg":11664,"wondrous":11665,"lungs":11666,"sights":11667,"folds":11668,"reveal":11669,"leslie":11670,"gow":11671,"ruby":11672,"batteries":11673,"asia":11674,"publicly":11675,"##gins":11676,"usur":11677,"didna":11678,"acceptance":11679,"telephone":11680,"stella":11681,"envelop":11682,"lev":11683,"armor":11684,"xviii":11685,"consistent":11686,"churchyard":11687,"sacr":11688,"apoll":11689,"apron":11690,"##otic":11691,"humph":11692,"comforted":11693,"explosion":11694,"launcelot":11695,"##ima":11696,"valet":11697,"monotonous":11698,"##ball":11699,"##aser":11700,"devout":11701,"forthwith":11702,"rustic":11703,"shivered":11704,"nostrils":11705,"butcher":11706,"attraction":11707,"airs":11708,"joining":11709,"pou":11710,"snug":11711,"52":11712,"toby":11713,"##odes":11714,"consultation":11715,"mules":11716,"caleb":11717,"unaw":11718,"trench":11719,"plantation":11720,"tay":11721,"consumed":11722,"leapt":11723,"75":11724,"##veying":11725,"noises":11726,"melt":11727,"howling":11728,"extract":11729,"##forced":11730,"##mate":11731,"holidays":11732,"raging":11733,"tedious":11734,"kat":11735,"##odox":11736,"endurance":11737,"nervously":11738,"disturbance":11739,"peac":11740,"destination":11741,"trading":11742,"curate":11743,"resembling":11744,"phenomenon":11745,"catastrophe":11746,"circular":11747,"disappearance":11748,"):":11749,"##aic":11750,"expend":11751,"conjecture":11752,"needless":11753,"covenant":11754,"bunk":11755,"##arious":11756,"meets":11757,"camel":11758,"cheered":11759,"heroine":11760,"grieve":11761,"pilgrimage":11762,"##hol":11763,"anat":11764,"weird":11765,"crisp":11766,"intermedi":11767,"hardened":11768,"threaten":11769,"leices":11770,"parade":11771,"deceit":11772,"instinctive":11773,"perpetually":11774,"pont":11775,"dashing":11776,"##actor":11777,"perceiving":11778,"plump":11779,"indirect":11780,"continues":11781,"bullets":11782,"cottages":11783,"##lement":11784,"supporting":11785,"kinsman":11786,"tumb":11787,"rely":11788,"especial":11789,"infall":11790,"barra":11791,"array":11792,"undist":11793,"deference":11794,"boiled":11795,"vicious":11796,"unquestion":11797,"guidance":11798,"xix":11799,"earthqu":11800,"wilkins":11801,"ingenuity":11802,"proverb":11803,"##itives":11804,"viewed":11805,"boyhood":11806,"ribs":11807,"inspection":11808,"jet":11809,"vices":11810,"##wer":11811,"homely":11812,"franklin":11813,"500":11814,"marches":11815,"polish":11816,"diab":11817,"monte":11818,"exposure":11819,"sammy":11820,"fulk":11821,"willie":11822,"plaster":11823,"blamed":11824,"sinister":11825,"banker":11826,"rushes":11827,"battal":11828,"decre":11829,"orderly":11830,"recur":11831,"##emen":11832,"maxwell":11833,"junior":11834,"honora":11835,"angles":11836,"##ugged":11837,"sticking":11838,"unaccount":11839,"lime":11840,"##tery":11841,"smote":11842,"shrub":11843,"sleeves":11844,"pulpit":11845,"abyss":11846,"gains":11847,"sof":11848,"chicken":11849,"duncan":11850,"jonathan":11851,"sham":11852,"studio":11853,"hig":11854,"sneer":11855,"morgan":11856,"brooks":11857,"##unciation":11858,"##ampton":11859,"resisted":11860,"fascinating":11861,"preliminary":11862,"scut":11863,"cheering":11864,"discovering":11865,"oppression":11866,"briskly":11867,"##fire":11868,"recl":11869,"70":11870,"crowds":11871,"uncertainty":11872,"overlooked":11873,"pagan":11874,"chiltern":11875,"##fton":11876,"blackness":11877,"bedside":11878,"cherry":11879,"adorned":11880,"barred":11881,"metaphys":11882,"indispensable":11883,"whereof":11884,"assuming":11885,"feller":11886,"mounting":11887,"unmist":11888,"bump":11889,"##chen":11890,"dombey":11891,"teachers":11892,"threats":11893,"ungrateful":11894,"weeds":11895,"piercing":11896,"disliked":11897,"##raged":11898,"barney":11899,"logical":11900,"encouraging":11901,"tranquil":11902,"richer":11903,"pension":11904,"##empl":11905,"glaring":11906,"preservation":11907,"assumption":11908,"shipw":11909,"influenced":11910,"ruler":11911,"obscurity":11912,"whirled":11913,"ominous":11914,"cruc":11915,"longest":11916,"lyn":11917,"intric":11918,"jokes":11919,"patriotism":11920,"congratulate":11921,"impost":11922,"annoyance":11923,"premises":11924,"!...":11925,"pawn":11926,"foss":11927,"comic":11928,"transaction":11929,"storms":11930,"fluttering":11931,"ceremonies":11932,"accidental":11933,"borders":11934,"slipping":11935,"circuit":11936,"##ursed":11937,"uttering":11938,"contributed":11939,"mischievous":11940,"##cope":11941,"coolness":11942,"entertaining":11943,"lifetime":11944,"unfit":11945,"noblest":11946,"guine":11947,"veiled":11948,"ribbon":11949,"##inted":11950,"balc":11951,"##forward":11952,"ronald":11953,"laur":11954,"##do":11955,"stormy":11956,"stages":11957,"overheard":11958,"tract":11959,"escaping":11960,"heavier":11961,"treacherous":11962,"dated":11963,"adieu":11964,"treating":11965,"##onia":11966,"loch":11967,"despond":11968,"overwhelming":11969,"eminently":11970,"restaurant":11971,"##enson":11972,"weed":11973,"rendering":11974,"uneasily":11975,"##egr":11976,"!\"--":11977,"limp":11978,"robbers":11979,"dazzling":11980,"cob":11981,"plung":11982,"captivity":11983,"testament":11984,"hateful":11985,"##ouched":11986,"fugitives":11987,"howard":11988,"madeline":11989,"mantel":11990,"discomfort":11991,"traders":11992,"##uate":11993,"##inch":11994,"feebly":11995,"53":11996,"stony":11997,"framed":11998,"discoveries":11999,"buttons":12000,"ada":12001,"carm":12002,"##ione":12003,"##riers":12004,"metrop":12005,"##anter":12006,"ambr":12007,"##icular":12008,"presenting":12009,"reconc":12010,"abominable":12011,"rouse":12012,"##pective":12013,"fairies":12014,"schoolmaster":12015,"hangs":12016,"exhibit":12017,"tossing":12018,"##anthrop":12019,"##quar":12020,"realm":12021,"dripping":12022,"classical":12023,"intelligible":12024,"##!\"":12025,"##olate":12026,"consisting":12027,"##haw":12028,"graces":12029,"##oga":12030,"inflicted":12031,"despatched":12032,"xl":12033,"chate":12034,"smugg":12035,"_re":12036,"libert":12037,"manor":12038,"brun":12039,"edifice":12040,"mamm":12041,"bearded":12042,"kaiser":12043,"accusation":12044,"vern":12045,"##anders":12046,"##ogra":12047,"salute":12048,"##hill":12049,"##hall":12050,"curls":12051,"vanish":12052,"dublin":12053,"stren":12054,"handy":12055,"propert":12056,"duel":12057,"maidens":12058,"cruelly":12059,"omitted":12060,"ov":12061,"fewer":12062,"advances":12063,"pillar":12064,"radiant":12065,"vincent":12066,"##ho":12067,"##uben":12068,"balcony":12069,"vit":12070,"weel":12071,"rattling":12072,"reaction":12073,"stops":12074,"trains":12075,"reluctance":12076,"gad":12077,"donkey":12078,"attire":12079,"deceased":12080,"lxx":12081,"##arth":12082,"tut":12083,"endowed":12084,"phara":12085,"modes":12086,"sobbed":12087,"##itory":12088,"whites":12089,"anarch":12090,"homage":12091,"appreciated":12092,"toy":12093,"stationed":12094,"pilgrims":12095,"apes":12096,"expedient":12097,"varying":12098,"humoured":12099,"session":12100,"shew":12101,"##umberland":12102,"plent":12103,"##erated":12104,"gestures":12105,"##zo":12106,"hav":12107,"ark":12108,"handwriting":12109,"seth":12110,"doubled":12111,"tenant":12112,"treasury":12113,"rhe":12114,"repaired":12115,"fugitive":12116,"bount":12117,"##time":12118,"clapped":12119,"dogged":12120,"carter":12121,"blot":12122,"consumm":12123,"pays":12124,"politely":12125,"##icking":12126,"inscription":12127,"clubs":12128,"worlds":12129,"palms":12130,"pharaoh":12131,"lark":12132,"##aza":12133,"vegetable":12134,"arbitr":12135,"mitch":12136,"relating":12137,"##rod":12138,"burgl":12139,"saluted":12140,"controversy":12141,"throws":12142,"deliverance":12143,"gleamed":12144,"muddy":12145,"obedient":12146,"pite":12147,"slide":12148,"explanations":12149,"_st":12150,"##eal":12151,"blink":12152,"afflicted":12153,"declares":12154,"williams":12155,"file":12156,"boiling":12157,"peaks":12158,"footnotes":12159,"portraits":12160,"cakes":12161,"chast":12162,"sweetly":12163,"blessings":12164,"nobler":12165,"hiss":12166,"regent":12167,"rests":12168,"insolent":12169,"depression":12170,"crouched":12171,"baffled":12172,"\")":12173,"possessing":12174,"parker":12175,"revers":12176,"owl":12177,"manifested":12178,"bib":12179,"nan":12180,"##oise":12181,"steed":12182,"eighth":12183,":--\"":12184,"##animity":12185,"##yer":12186,".\"]":12187,"alv":12188,"##ugs":12189,"majestic":12190,"verand":12191,"relax":12192,"insulted":12193,"peculiarities":12194,"bess":12195,"continuing":12196,"clearer":12197,"delights":12198,"contemplated":12199,"advertisement":12200,"sta":12201,"##amations":12202,"peach":12203,"imposing":12204,"morbid":12205,"flet":12206,"opt":12207,"##anse":12208,"##ania":12209,"##osh":12210,"sermons":12211,"##jected":12212,"warmed":12213,"airy":12214,"bertha":12215,"precision":12216,"turkish":12217,"cricket":12218,"properties":12219,"clue":12220,"dome":12221,"##cester":12222,"moods":12223,"constitutional":12224,"decorated":12225,"amateur":12226,"pork":12227,"##arton":12228,"strengthened":12229,"##asse":12230,"legged":12231,"accursed":12232,"satire":12233,"secrecy":12234,"##loc":12235,"##ivol":12236,"insensible":12237,"skirm":12238,"selfishness":12239,"superflu":12240,"despatch":12241,"youths":12242,"dominion":12243,"districts":12244,"subsequently":12245,"eph":12246,"##oric":12247,"nov":12248,"oriental":12249,"_wh":12250,"improbable":12251,"bein":12252,"170":12253,"costly":12254,"dismounted":12255,"thata":12256,"sorrowful":12257,"mocking":12258,"reluctantly":12259,"karl":12260,"##bons":12261,"canter":12262,"wisest":12263,"whistled":12264,"cowardly":12265,"resource":12266,"##olics":12267,"cox":12268,"nora":12269,"questioning":12270,"represents":12271,"retiring":12272,"depressed":12273,"lib":12274,"miner":12275,"illum":12276,"aristocratic":12277,"mexican":12278,"54":12279,"humiliation":12280,"leicester":12281,"tel":12282,".\"[":12283,"sighted":12284,"pau":12285,"alight":12286,"wanton":12287,"otto":12288,"##aul":12289,"stature":12290,"peering":12291,"comforts":12292,"victorious":12293,"intermediate":12294,"haze":12295,"factory":12296,"breeches":12297,"proclaim":12298,"attribute":12299,"til":12300,"##iph":12301,"strive":12302,"shivering":12303,"distribution":12304,"brooding":12305,"##ete":12306,"safer":12307,"burial":12308,"worthless":12309,"##swain":12310,"robbery":12311,"rice":12312,"##cis":12313,"##enna":12314,"##stable":12315,"respective":12316,"endeavor":12317,"300":12318,"delusion":12319,"banished":12320,"interfered":12321,"paced":12322,"definition":12323,"supposition":12324,"gateway":12325,"pigeons":12326,"motions":12327,"cooked":12328,"clutched":12329,"mim":12330,"rally":12331,"proceeds":12332,"taxes":12333,"proclamation":12334,"80":12335,"admon":12336,"austria":12337,"rural":12338,"foundations":12339,"dinners":12340,"pike":12341,"propositions":12342,"decks":12343,"plaint":12344,"curr":12345,"benjamin":12346,"##orph":12347,"amelia":12348,"interpreter":12349,"cromwell":12350,"##iley":12351,"cheque":12352,"irony":12353,"reigned":12354,"##apse":12355,"epist":12356,"penetrated":12357,"scarecrow":12358,"andre":12359,"apparition":12360,"variant":12361,"splendor":12362,"##ographical":12363,"toilet":12364,"passive":12365,"shrine":12366,"gaiety":12367,"companionship":12368,"principally":12369,"bucket":12370,"provincial":12371,"trout":12372,"georg":12373,"reefs":12374,"flattering":12375,"peered":12376,"happiest":12377,"burr":12378,"profitable":12379,"substit":12380,"parliamentary":12381,"cupboard":12382,"bard":12383,"##gow":12384,"nightfall":12385,"expert":12386,"frankness":12387,"genus":12388,"convert":12389,"destroying":12390,"strait":12391,"hello":12392,"squirrel":12393,"sard":12394,"twain":12395,"cheval":12396,"endeavored":12397,"muffled":12398,"spacious":12399,"barber":12400,"delicately":12401,"mum":12402,"site":12403,"##onna":12404,"beset":12405,"dissatisf":12406,"projecting":12407,"tuft":12408,"variations":12409,"dere":12410,"reared":12411,"intox":12412,"gradual":12413,"##onym":12414,"persecution":12415,"nim":12416,"sting":12417,"halls":12418,"pleading":12419,"ascending":12420,"sundry":12421,"shipwre":12422,"dates":12423,"squat":12424,"freshness":12425,"luxur":12426,"terrors":12427,"fundamental":12428,"garn":12429,"mused":12430,"##nings":12431,"clemens":12432,"shrunk":12433,"chestnut":12434,"conqueror":12435,"aggress":12436,"unfold":12437,"gid":12438,"moll":12439,"rejoicing":12440,"lionel":12441,"##itzer":12442,"repetition":12443,"sord":12444,"agency":12445,"alleged":12446,"##bar":12447,"##thorne":12448,"boil":12449,"resident":12450,"slate":12451,"miraculous":12452,"gilt":12453,"thrilling":12454,"pasture":12455,"divisions":12456,"65":12457,"prohib":12458,"arranging":12459,"naples":12460,"##run":12461,"ally":12462,"barrels":12463,"gentleness":12464,"closet":12465,"crosses":12466,"posture":12467,"universally":12468,"qualified":12469,"fascination":12470,"outfit":12471,"humili":12472,"sixpence":12473,"describing":12474,"glee":12475,"muttering":12476,"captives":12477,"concealment":12478,"liquid":12479,"simultaneously":12480,"quot":12481,"industri":12482,"guides":12483,"removing":12484,"detachment":12485,"laz":12486,"valiant":12487,"whispers":12488,"messengers":12489,"correspondent":12490,"visibly":12491,"stunned":12492,"spike":12493,"greed":12494,"cigars":12495,"wins":12496,"monaster":12497,"reasonably":12498,"veranda":12499,"obstacle":12500,"alder":12501,"vigorously":12502,"##ivities":12503,"messages":12504,"granite":12505,"pent":12506,"##liction":12507,"expectations":12508,"goldsmith":12509,"hasten":12510,"embark":12511,"messrs":12512,"aub":12513,"inco":12514,"##elope":12515,"covers":12516,"pepper":12517,".),":12518,"employer":12519,"rats":12520,"ties":12521,"constituted":12522,"oaths":12523,"stammered":12524,"gond":12525,"##agu":12526,"mutton":12527,"waggon":12528,"echoes":12529,"gotten":12530,"loveliness":12531,"shaded":12532,"prede":12533,"exultation":12534,"magdalen":12535,"arb":12536,"identical":12537,"diet":12538,"##utter":12539,"lesser":12540,"signor":12541,"obliv":12542,"suggestions":12543,"reminds":12544,"##stock":12545,"blacks":12546,"detained":12547,"brightened":12548,"titles":12549,"competent":12550,"drooping":12551,"pompe":12552,"_me_":12553,"uninter":12554,"elbows":12555,"dau":12556,"##fish":12557,"##icker":12558,"fails":12559,"void":12560,"draft":12561,"deprec":12562,"##bray":12563,"##iterated":12564,"louisa":12565,"ruddy":12566,"forcing":12567,"spake":12568,"spies":12569,"insane":12570,"scrub":12571,"disregard":12572,"##craft":12573,"transparent":12574,"indistinct":12575,"##sea":12576,"seren":12577,"walt":12578,"embra":12579,"undertook":12580,"hospitable":12581,"refreshment":12582,"##lit":12583,"##athed":12584,"justification":12585,"emma":12586,"##bted":12587,"##cier":12588,"unspe":12589,"pretext":12590,"prompted":12591,"irritated":12592,"relaxed":12593,"predecess":12594,"thames":12595,"terrific":12596,"vivian":12597,"reuben":12598,"##rad":12599,"stations":12600,"deacon":12601,"afl":12602,"produces":12603,"representatives":12604,"swelling":12605,"poisoned":12606,"stress":12607,"merrily":12608,"1829":12609,"placid":12610,"enlightened":12611,"tangled":12612,"sect":12613,"flaming":12614,"distaste":12615,"indebted":12616,"expose":12617,"attentions":12618,"##je":12619,"saun":12620,"carly":12621,"functions":12622,"boul":12623,"restoration":12624,"equival":12625,"firmness":12626,"plucked":12627,"cling":12628,"besee":12629,"languid":12630,"##strong":12631,"cate":12632,"unhe":12633,"bunyan":12634,"##amous":12635,"planet":12636,"rumour":12637,"scrap":12638,"sterling":12639,"chaps":12640,"footman":12641,"davis":12642,"cosm":12643,"insignificant":12644,"wasting":12645,"unav":12646,"complac":12647,"##angel":12648,"lays":12649,"theatrical":12650,"lave":12651,"christopher":12652,"##ani":12653,"manoeuv":12654,"quantities":12655,"esteemed":12656,"cedar":12657,"mong":12658,"##covered":12659,"customers":12660,"refinement":12661,"bayon":12662,"alec":12663,"aimed":12664,"verandah":12665,"##ilated":12666,"aloof":12667,"comte":12668,"dispose":12669,"canon":12670,"sacrifices":12671,"rabbits":12672,"_he_":12673,"kra":12674,"tons":12675,"sloop":12676,"galloped":12677,"cuff":12678,"nelson":12679,"##ardy":12680,"castles":12681,"salmon":12682,"dominions":12683,"speculations":12684,"rams":12685,"herds":12686,"guineas":12687,"scratch":12688,"wrecked":12689,"collecting":12690,"theodora":12691,"visage":12692,"repeatedly":12693,"machines":12694,"##rom":12695,"##nde":12696,"upl":12697,"smashed":12698,"authent":12699,"gratification":12700,"swayed":12701,"bearer":12702,"matrim":12703,"orphan":12704,"richest":12705,"inevitably":12706,"s_":12707,"democratic":12708,"lordships":12709,"dud":12710,"prest":12711,"putnam":12712,"stuart":12713,"naughty":12714,"concentrated":12715,"outlaw":12716,"cod":12717,"carroll":12718,"attributes":12719,"dazed":12720,"sled":12721,"intri":12722,"russians":12723,"curtis":12724,"melm":12725,"funds":12726,"nought":12727,"cured":12728,"instruct":12729,"eventually":12730,"jen":12731,"tumbling":12732,"incor":12733,"172":12734,"embarked":12735,"swelled":12736,"dialogue":12737,"loan":12738,"davy":12739,"tutor":12740,"matches":12741,"fero":12742,"epic":12743,"##dam":12744,"gruff":12745,"actors":12746,"173":12747,"organization":12748,"shrieked":12749,"##wor":12750,"antique":12751,"weaker":12752,"56":12753,"##akers":12754,"newton":12755,"disturbing":12756,"reminisc":12757,"fulkerson":12758,"##onted":12759,"liar":12760,"courses":12761,"hopelessly":12762,"worshipped":12763,"isolated":12764,"notable":12765,"assign":12766,"elders":12767,"imitate":12768,"confidently":12769,"vegetation":12770,"lewis":12771,"uproar":12772,"##ographer":12773,"kindled":12774,"silas":12775,"risks":12776,"cultivation":12777,"ecclesiastical":12778,"##ige":12779,"archde":12780,"##asmuch":12781,"##ios":12782,"##olo":12783,"disse":12784,"perched":12785,"leisurely":12786,"whirling":12787,"##fell":12788,"skim":12789,"suggestive":12790,"crawl":12791,"'.\"":12792,"unbel":12793,"peeped":12794,"##west":12795,"pew":12796,"workers":12797,"reaches":12798,"substitute":12799,"choosing":12800,"diction":12801,"ib":12802,"pulse":12803,"##ders":12804,"comin":12805,"glove":12806,"howl":12807,"crude":12808,"destitute":12809,"ecstasy":12810,"hir":12811,"##nets":12812,"core":12813,"heave":12814,"##thest":12815,"mariner":12816,"crum":12817,"repay":12818,"discord":12819,"dishe":12820,"nineteenth":12821,"peoples":12822,"conscientious":12823,"ether":12824,"##leby":12825,"emble":12826,"scrape":12827,"refrain":12828,"sketches":12829,"demonstration":12830,"dens":12831,"##jour":12832,"whig":12833,"fellowship":12834,"possesses":12835,"launched":12836,"##wend":12837,"respectfully":12838,"bulw":12839,"surveyed":12840,"clan":12841,"beads":12842,"chased":12843,"wearily":12844,"burgund":12845,"irene":12846,"disconcer":12847,"ducks":12848,"orthodox":12849,"##iners":12850,"rhine":12851,"daddy":12852,"suicide":12853,"beware":12854,"ferocious":12855,"fang":12856,"tire":12857,"##istram":12858,"##ali":12859,"##assing":12860,"speck":12861,"starts":12862,"cald":12863,"archdeacon":12864,"mining":12865,"degen":12866,"traveling":12867,"ferry":12868,"nellie":12869,"sordid":12870,"##oland":12871,"elm":12872,"dryly":12873,"cradle":12874,"bubb":12875,"##angling":12876,"memoir":12877,"vot":12878,"tremulous":12879,"pyram":12880,"disadvantage":12881,"heated":12882,"joyful":12883,"implic":12884,"excuses":12885,"##parable":12886,"crowns":12887,"('":12888,"deity":12889,"##oys":12890,"raz":12891,"consecr":12892,"fran":12893,"##cliffe":12894,"ayl":12895,"emptied":12896,"describes":12897,"winged":12898,"excessive":12899,"pint":12900,"affliction":12901,"castlewood":12902,"bridges":12903,"reinforce":12904,"chariot":12905,"perspir":12906,"summon":12907,"fowls":12908,"chris":12909,"characteristics":12910,"hotels":12911,"bleak":12912,"##fathers":12913,"twinkling":12914,"imprisoned":12915,"spoon":12916,"settlers":12917,"stanza":12918,"apostle":12919,"unsh":12920,"wrung":12921,"monkeys":12922,"mates":12923,"meag":12924,"brus":12925,"progen":12926,"goodly":12927,"invested":12928,"brack":12929,"radical":12930,"skilful":12931,"cot":12932,"cly":12933,"adams":12934,"farms":12935,"1800":12936,"urging":12937,"ana":12938,"##igan":12939,"penalty":12940,"57":12941,"tires":12942,"##erting":12943,"warrington":12944,"secondary":12945,"sinful":12946,"##inald":12947,"##anity":12948,"cran":12949,"##prit":12950,"digging":12951,"masts":12952,"josh":12953,"phantom":12954,"carlyle":12955,"kor":12956,"usage":12957,"signature":12958,"150":12959,"sane":12960,"wulf":12961,"tristram":12962,"cros":12963,"conceit":12964,"latitude":12965,"chronicle":12966,"knots":12967,"contracted":12968,"futile":12969,"##ulsion":12970,"##verted":12971,"blossoms":12972,"discontent":12973,"kim":12974,"mound":12975,"toe":12976,"subt":12977,"swiss":12978,"barry":12979,"senseless":12980,".--\"":12981,"mockery":12982,"rar":12983,"shir":12984,"##ust_":12985,"tray":12986,"mini":12987,"##uctive":12988,"rustling":12989,"outstretched":12990,"battered":12991,"tull":12992,"":12993,"##enburg":12994,"rept":12995,"exercises":12996,"##grave":12997,"shifted":12998,"##bil":12999,"drinks":13000,"##etical":13001,"chew":13002,"scour":13003,"hubert":13004,"heather":13005,"delir":13006,"wagg":13007,"tunnel":13008,"tropical":13009,"extinguished":13010,"kens":13011,"holly":13012,"mystic":13013,"contriv":13014,"ludic":13015,"infect":13016,"clatter":13017,"pathos":13018,"thickness":13019,"arabella":13020,"barker":13021,"cors":13022,"successor":13023,"professors":13024,"harrison":13025,"whims":13026,"adult":13027,"relish":13028,"pedro":13029,"gwend":13030,"nae":13031,"tib":13032,"shaks":13033,"humming":13034,"dispersed":13035,"stroll":13036,"available":13037,"iniquity":13038,"ranged":13039,"##oths":13040,"beggars":13041,"swearing":13042,"dane":13043,"##an_":13044,"##otent":13045,"writh":13046,"laird":13047,"doubly":13048,"necks":13049,"holiness":13050,"tenny":13051,"gloomily":13052,"linger":13053,"glimps":13054,"guinea":13055,"shutting":13056,"groves":13057,"rhyme":13058,"cice":13059,"eighteenth":13060,"##cribe":13061,"scrup":13062,"conservative":13063,"##lop":13064,"fres":13065,"nicely":13066,"foreigners":13067,"carts":13068,"stuffed":13069,"irritation":13070,"piles":13071,"##erd":13072,"##omen":13073,"joc":13074,"slugg":13075,"officials":13076,"tumble":13077,"burgh":13078,"accurately":13079,"lagoon":13080,".(":13081,"##raw":13082,"carav":13083,"warlike":13084,"receives":13085,"projected":13086,"sheff":13087,"enduring":13088,"alarming":13089,"rolls":13090,"wagons":13091,"##escrib":13092,"goats":13093,"provoked":13094,"triumphantly":13095,"spaces":13096,"muscle":13097,"entreated":13098,"enlarged":13099,"tod":13100,"countless":13101,"chieftain":13102,"subordinate":13103,"loo":13104,"bohem":13105,"##acker":13106,"illusion":13107,"##cun":13108,"interm":13109,"confound":13110,"defense":13111,"disgusted":13112,"popularity":13113,"ridicule":13114,"mord":13115,"serves":13116,"cuts":13117,"dingy":13118,"cum":13119,"poop":13120,"noses":13121,"cheers":13122,"jenn":13123,"psmith":13124,"imped":13125,"glimm":13126,"##animous":13127,"nym":13128,"deepened":13129,"complaints":13130,"pens":13131,"pecks":13132,"understands":13133,"hairs":13134,"creator":13135,"birch":13136,"gav":13137,"wellington":13138,"luckily":13139,"##ollen":13140,"fletcher":13141,"tennyson":13142,"##ulity":13143,"arising":13144,"amiss":13145,"adapt":13146,"perfor":13147,"plea":13148,"phase":13149,"chapters":13150,"cheerfulness":13151,"relationship":13152,"disguised":13153,"##cily":13154,"signify":13155,"freight":13156,"hybr":13157,"nobly":13158,"shocking":13159,"##bage":13160,"gentry":13161,"finely":13162,"neighboring":13163,"imprisonment":13164,"frigate":13165,"convictions":13166,"weekly":13167,"verm":13168,"snar":13169,"watchful":13170,"lowering":13171,"pitied":13172,"indescrib":13173,"clarke":13174,"reluctant":13175,"tant":13176,"esq":13177,"helena":13178,"##rossed":13179,"practise":13180,"grinning":13181,"flutter":13182,"rapture":13183,"hens":13184,"willow":13185,"belg":13186,"equivalent":13187,"molly":13188,"luxurious":13189,"sovereigns":13190,"notorious":13191,"proving":13192,"reflecting":13193,"habitation":13194,"statesman":13195,"settlements":13196,"challeng":13197,"stall":13198,"ohio":13199,"magnificence":13200,"noticing":13201,"accuse":13202,"##itic":13203,"mole":13204,"homest":13205,"sidney":13206,"fading":13207,"ross":13208,"##bling":13209,"rains":13210,"blinded":13211,"resolutely":13212,"superficial":13213,"##fellow":13214,"scores":13215,"quicker":13216,"##held":13217,"mentioning":13218,"claws":13219,"inve":13220,"boer":13221,"disinter":13222,"##ia_":13223,"melody":13224,"gifted":13225,"slippers":13226,"persian":13227,"168":13228,"ozma":13229,"simplest":13230,"pledged":13231,"##aders":13232,"relics":13233,"##ocrat":13234,"gresh":13235,"inconvenience":13236,"gilded":13237,"cicely":13238,"foret":13239,"##ayne":13240,"abused":13241,"interrog":13242,"phe":13243,"slew":13244,"conversion":13245,"##quarters":13246,"##eph":13247,"whereby":13248,"benches":13249,"rattled":13250,"curved":13251,"sentry":13252,"chevalier":13253,"\",":13254,"##some":13255,"##ailing":13256,"annih":13257,"flourish":13258,"exterior":13259,"tory":13260,"##fig":13261,"##vie":13262,"pebb":13263,"irishman":13264,"accommodation":13265,"valentine":13266,"eyelids":13267,"dipped":13268,"hobb":13269,"barge":13270,"fluttered":13271,"reconciled":13272,"pairs":13273,"rides":13274,"include":13275,"antonio":13276,"mexico":13277,"homestead":13278,"##houses":13279,"##ifted":13280,"lasting":13281,"fasten":13282,"sustain":13283,"involuntarily":13284,"##kim":13285,"crushing":13286,"timidly":13287,"magistrates":13288,"##---|":13289,"fren":13290,"newcom":13291,"betroth":13292,"lapse":13293,"swollen":13294,"cheat":13295,"valour":13296,"fondly":13297,"##gill":13298,"##mont":13299,"perpend":13300,"marco":13301,"presumed":13302,"roder":13303,"wrinkled":13304,"qui":13305,"nightm":13306,"subsist":13307,"lucilla":13308,"fascinated":13309,"quarrelled":13310,"diabol":13311,"scrambled":13312,"##lig":13313,"##velin":13314,"splash":13315,"incessant":13316,"##unity":13317,"grassy":13318,"referring":13319,"cavalier":13320,"##occupied":13321,"nymph":13322,"##iating":13323,"conceivable":13324,"apparatus":13325,"rudely":13326,"yankee":13327,"pans":13328,"sojour":13329,"switzer":13330,"tranquill":13331,"celest":13332,"##orf":13333,"adjust":13334,"essays":13335,"chaos":13336,"compose":13337,"fishermen":13338,"hates":13339,"hudd":13340,"timothy":13341,"forecastle":13342,"survived":13343,"idolat":13344,"##on_":13345,"aggra":13346,"conting":13347,"bout":13348,"votes":13349,"confided":13350,"inviting":13351,"snowy":13352,"tolerable":13353,"energies":13354,"soap":13355,"silenced":13356,"xxii":13357,"inexpress":13358,"impulses":13359,"##pine":13360,"theology":13361,"barrington":13362,"expressly":13363,"cutter":13364,"58":13365,"efficient":13366,"persuasion":13367,"associate":13368,"distributed":13369,"benevolent":13370,"episode":13371,"sweethe":13372,"grizz":13373,"fertility":13374,"survive":13375,"pecksniff":13376,"jur":13377,"sings":13378,"distances":13379,"bradley":13380,"judith":13381,"grievous":13382,"befallen":13383,"nathan":13384,"##abilities":13385,"insens":13386,"sepulch":13387,"demeanour":13388,"##oving":13389,"##gues":13390,"##ndy":13391,"##isco":13392,"effingham":13393,"lets":13394,"glands":13395,"shrinking":13396,"ivy":13397,"grind":13398,"coy":13399,"absurdity":13400,"problems":13401,"psalm":13402,"luminous":13403,"insolence":13404,"blazed":13405,"opponent":13406,"sae":13407,"bruce":13408,"philipp":13409,"speechless":13410,"foreigner":13411,"pedest":13412,"protector":13413,"exceptional":13414,"bewilder":13415,"lurking":13416,"sobs":13417,"modification":13418,"mortals":13419,"decisive":13420,"jed":13421,"##uts":13422,"frivol":13423,"downwards":13424,"headquarters":13425,"furt":13426,"xxi":13427,"exclusive":13428,"contemptuous":13429,"bere":13430,"tat":13431,"flann":13432,"ports":13433,"uncommonly":13434,"##adelph":13435,"switzerland":13436,"arched":13437,"drill":13438,"presby":13439,"milly":13440,"angela":13441,"traversed":13442,"inconsistent":13443,"_all":13444,"bicy":13445,"todd":13446,"fortified":13447,"##brook":13448,"##irst":13449,"pursuits":13450,"diary":13451,"cordially":13452,"prophets":13453,"nursing":13454,"unintell":13455,"_her":13456,"tipp":13457,"##bank":13458,"heaped":13459,"spru":13460,"phill":13461,"miners":13462,"heiress":13463,"shafts":13464,"swaying":13465,"strokes":13466,"##ableness":13467,"processes":13468,"retreating":13469,"grumbled":13470,"fearfully":13471,"unfair":13472,"accidentally":13473,"##stood":13474,"commiss":13475,"workman":13476,"redoub":13477,"destru":13478,"adversary":13479,"##loe":13480,"beats":13481,"flags":13482,"crawling":13483,"throats":13484,"vowed":13485,"inacc":13486,"##opol":13487,"julius":13488,"cushions":13489,"##umbered":13490,"##uen":13491,"##wright":13492,"mann":13493,"reginald":13494,"caves":13495,"strand":13496,"forefathers":13497,"chairman":13498,"thrusting":13499,"thirsty":13500,"lydia":13501,"chauvelin":13502,"merriment":13503,"piazza":13504,"lis":13505,"sill":13506,"clump":13507,"attacking":13508,"##estone":13509,"murmuring":13510,"prostrate":13511,"interpretation":13512,"illuminated":13513,"##emor":13514,"wouldst":13515,"##ortion":13516,"acre":13517,"clearness":13518,"pronounce":13519,"candidate":13520,"mowbray":13521,"hev":13522,"neale":13523,"rainbow":13524,"flocks":13525,"beckoned":13526,"lustre":13527,"prussia":13528,"hilary":13529,"corrected":13530,"analysis":13531,"toad":13532,"resented":13533,"finishing":13534,"surrendered":13535,"##eties":13536,"reced":13537,"alighted":13538,"bravery":13539,"philanthrop":13540,"raymond":13541,"##illon":13542,"whereon":13543,"snakes":13544,"riders":13545,"insect":13546,"elephants":13547,"fainted":13548,"orator":13549,"##rigg":13550,"emergency":13551,"worms":13552,"##rehensible":13553,"pavilion":13554,"organized":13555,"sue":13556,"unite":13557,"trotted":13558,"##lier":13559,"##inated":13560,"revolutionary":13561,"subsided":13562,"baptism":13563,"forwards":13564,"trooper":13565,"musing":13566,"headache":13567,"defy":13568,"inexplic":13569,"typical":13570,"icy":13571,"shady":13572,"muller":13573,"rug":13574,"animation":13575,"consulting":13576,"shifting":13577,"replies":13578,"canyon":13579,"gear":13580,"gracefully":13581,"rowland":13582,"gambling":13583,"roland":13584,"striped":13585,"##pending":13586,"embroidered":13587,"aching":13588,"gerva":13589,"degrad":13590,"deputy":13591,"cer":13592,"clark":13593,"hostility":13594,"evelyn":13595,"patriotic":13596,"estimation":13597,"satin":13598,"editions":13599,"doubtfully":13600,"##iterranean":13601,"thwart":13602,"##owering":13603,"nameless":13604,"emerald":13605,"##lot":13606,"##xion":13607,"##es_":13608,"...\"":13609,"grammar":13610,"nether":13611,"alps":13612,"perpendicular":13613,"##hap":13614,"##groom":13615,"grandson":13616,"dreamy":13617,"commissioner":13618,"bridegroom":13619,"gallantry":13620,"definitely":13621,"transactions":13622,"cres":13623,"arbitrary":13624,"aer":13625,"##ride":13626,"arrog":13627,"peeping":13628,"softness":13629,"lambert":13630,"sciences":13631,"plaus":13632,"exceptions":13633,"fights":13634,"meditation":13635,"embod":13636,"socialism":13637,"troopers":13638,"##born":13639,"##bro":13640,"##igo":13641,"##onson":13642,"drawings":13643,"packing":13644,"athens":13645,"haunts":13646,"noiselessly":13647,"thump":13648,"##eller":13649,"thrilled":13650,"madman":13651,"parsons":13652,"##inished":13653,"parap":13654,"quickened":13655,"1828":13656,"linda":13657,"financial":13658,"##owness":13659,"encir":13660,"cask":13661,"kicking":13662,"appealing":13663,"kinder":13664,"minst":13665,"posterity":13666,"jeanne":13667,"------":13668,"gros":13669,"##ologist":13670,"extravagance":13671,"##otism":13672,"muck":13673,"braz":13674,"impossibility":13675,"greedy":13676,"mediterranean":13677,"groc":13678,"marine":13679,"infancy":13680,"players":13681,"##matic":13682,"pinn":13683,"ache":13684,"crouching":13685,"##child":13686,"disast":13687,"cooper":13688,"ambrose":13689,"swind":13690,"drives":13691,"auction":13692,"ces":13693,"stig":13694,"grains":13695,"sleigh":13696,"automob":13697,"dit":13698,"vass":13699,"##requ":13700,"convict":13701,"_was_":13702,"obstinacy":13703,"legislature":13704,"dialect":13705,"unaccountable":13706,"ami":13707,"carey":13708,"hurrah":13709,"peculiarity":13710,"##burst":13711,"eden":13712,"knave":13713,"quote":13714,"warden":13715,"hoarsely":13716,"##ciful":13717,"flirt":13718,"ineff":13719,"hullo":13720,"canadian":13721,"gwendolen":13722,"thar":13723,"atro":13724,"overp":13725,"imply":13726,"beaver":13727,"dip":13728,"thereafter":13729,"##una":13730,"coals":13731,"madonna":13732,"temperature":13733,"scruples":13734,"encampment":13735,"ply":13736,"reed":13737,"confinement":13738,"enthusiast":13739,"displeased":13740,"##chus":13741,"deuce":13742,"##um_":13743,"compound":13744,"philadelph":13745,"damsel":13746,"beastly":13747,"unlock":13748,"_le":13749,"insight":13750,"##oyd":13751,"browning":13752,"turb":13753,"##oded":13754,"##onda":13755,"scratched":13756,"fragrant":13757,"hannibal":13758,"era":13759,"christie":13760,"wooded":13761,"epith":13762,"surviv":13763,"ri":13764,"rit":13765,"##chal":13766,"vegetables":13767,"wistfully":13768,"assailants":13769,"hort":13770,"tang":13771,"beacon":13772,"##then":13773,"doubting":13774,"constitu":13775,"chooses":13776,"chip":13777,"propag":13778,"duane":13779,"attentively":13780,"stating":13781,"presumption":13782,"##cling":13783,"execute":13784,"historian":13785,"undisturbed":13786,"##rist":13787,"##enches":13788,"ghostly":13789,"tradesman":13790,"_be":13791,"vienna":13792,"popul":13793,"wherewith":13794,"sliding":13795,"reconcile":13796,"frenzy":13797,"##oma":13798,"isab":13799,"glowed":13800,"paternal":13801,"anglo":13802,"habitually":13803,"conne":13804,"denying":13805,"addresses":13806,"turks":13807,"penetrate":13808,"##powered":13809,"##isse":13810,"rebe":13811,"torches":13812,"muskets":13813,"degradation":13814,"carc":13815,"sloping":13816,"natures":13817,"rubber":13818,"reckoning":13819,"rhyth":13820,"perempt":13821,"vows":13822,"thri":13823,"tok":13824,"downright":13825,"conductor":13826,"precautions":13827,"##tr":13828,"outp":13829,"premature":13830,"nigger":13831,"indo":13832,"steering":13833,"cheery":13834,"##esa":13835,"isles":13836,"marion":13837,"appalling":13838,"transp":13839,"sampson":13840,"savagely":13841,"tug":13842,"##elius":13843,"snows":13844,"device":13845,"unsatisf":13846,"gripped":13847,"vexation":13848,"##rin":13849,"inasmuch":13850,"satir":13851,"geological":13852,"ayal":13853,"laud":13854,"##cote":13855,"register":13856,"figured":13857,"whiskey":13858,"ayala":13859,"compress":13860,"troy":13861,"bricks":13862,"coincidence":13863,"***":13864,"fray":13865,"##anges":13866,"decree":13867,"thompson":13868,"legends":13869,"62":13870,"90":13871,"##ista":13872,"trent":13873,"cocked":13874,"##athy":13875,"improper":13876,"##iron":13877,"marl":13878,"necessities":13879,"misty":13880,"sacrament":13881,"nar":13882,"##sman":13883,"lav":13884,"godly":13885,"kipps":13886,"exempl":13887,"acid":13888,"paw":13889,"catholics":13890,"kingdoms":13891,"apprehensions":13892,"gnaw":13893,"liberties":13894,"anew":13895,"cram":13896,"relent":13897,"fuller":13898,"costs":13899,"reformation":13900,"cruise":13901,"comprehension":13902,"vividly":13903,"gervaise":13904,"##ns":13905,"63":13906,"wee":13907,"##aga":13908,"##ilee":13909,"hardest":13910,"ordering":13911,"praises":13912,"manufacture":13913,"overfl":13914,"remot":13915,"galleries":13916,"straightway":13917,"accompanying":13918,"monarchy":13919,"ki":13920,"loses":13921,"prick":13922,"noel":13923,"saxons":13924,"feudal":13925,"compensation":13926,"handling":13927,"regardless":13928,"sensibility":13929,"executive":13930,"heaving":13931,"fixing":13932,"magazines":13933,"bruised":13934,"awakening":13935,"leigh":13936,"guise":13937,"##har":13938,"##_l":13939,"enm":13940,"charitable":13941,"darkly":13942,"##hammed":13943,"matron":13944,"obligations":13945,"vastly":13946,"diameter":13947,"accumulated":13948,"##gom":13949,"wharton":13950,"##cibly":13951,"discred":13952,"deliberation":13953,"tickets":13954,"squadron":13955,"scriptures":13956,"##orting":13957,"resolutions":13958,"wiping":13959,"##emp":13960,"intimated":13961,"apprehend":13962,"dynam":13963,"shipping":13964,"crops":13965,"blackened":13966,"mortimer":13967,"stiffly":13968,"adequate":13969,"##manship":13970,"profane":13971,"gallows":13972,"unsc":13973,"avoiding":13974,"inexper":13975,"fists":13976,"saul":13977,"undergone":13978,"transformed":13979,"liz":13980,"overtake":13981,"amyas":13982,"discontented":13983,"dances":13984,"lau":13985,"##mble":13986,"amph":13987,"mature":13988,"plunging":13989,"enrich":13990,"rigging":13991,"historic":13992,".=":13993,"gem":13994,"vert":13995,"##tar":13996,"grudge":13997,"honored":13998,"necklace":13999,"appendix":14000,"toll":14001,"effectual":14002,"lacked":14003,"patriarch":14004,"chuckled":14005,"productions":14006,"_qu":14007,"##opl":14008,"locality":14009,"smoothly":14010,"colonial":14011,"sine":14012,"##rd":14013,"jersey":14014,
[...]
